{
  "version": "1.0",
  "truncation": null,
  "padding": null,
  "added_tokens": [
    {
      "id": 0,
      "content": "<SOS>",
      "single_word": false,
      "lstrip": false,
      "rstrip": false,
      "normalized": false,
      "special": true
    },
    {
      "id": 1,
      "content": "<EOS>",
      "single_word": false,
      "lstrip": false,
      "rstrip": false,
      "normalized": false,
      "special": true
    },
    {
      "id": 2,
      "content": "<PAD>",
      "single_word": false,
      "lstrip": false,
      "rstrip": false,
      "normalized": false,
      "special": true
    },
    {
      "id": 3,
      "content": "<UNK>",
      "single_word": false,
      "lstrip": false,
      "rstrip": false,
      "normalized": false,
      "special": true
    },
    {
      "id": 4,
      "content": "<PLAYFUL>",
      "single_word": false,
      "lstrip": false,
      "rstrip": false,
      "normalized": false,
      "special": true
    },
    {
      "id": 5,
      "content": "<MYSTERIOUS>",
      "single_word": false,
      "lstrip": false,
      "rstrip": false,
      "normalized": false,
      "special": true
    },
    {
      "id": 6,
      "content": "<FORMAL>",
      "single_word": false,
      "lstrip": false,
      "rstrip": false,
      "normalized": false,
      "special": true
    },
    {
      "id": 7,
      "content": "<CASUAL>",
      "single_word": false,
      "lstrip": false,
      "rstrip": false,
      "normalized": false,
      "special": true
    },
    {
      "id": 8,
      "content": "<EXCITED>",
      "single_word": false,
      "lstrip": false,
      "rstrip": false,
      "normalized": false,
      "special": true
    },
    {
      "id": 9,
      "content": "<CALM>",
      "single_word": false,
      "lstrip": false,
      "rstrip": false,
      "normalized": false,
      "special": true
    },
    {
      "id": 10,
      "content": "<QUESTION>",
      "single_word": false,
      "lstrip": false,
      "rstrip": false,
      "normalized": false,
      "special": true
    },
    {
      "id": 11,
      "content": "<STATEMENT>",
      "single_word": false,
      "lstrip": false,
      "rstrip": false,
      "normalized": false,
      "special": true
    },
    {
      "id": 12,
      "content": "<COMMAND>",
      "single_word": false,
      "lstrip": false,
      "rstrip": false,
      "normalized": false,
      "special": true
    },
    {
      "id": 13,
      "content": "<GREETING>",
      "single_word": false,
      "lstrip": false,
      "rstrip": false,
      "normalized": false,
      "special": true
    },
    {
      "id": 14,
      "content": "<FAREWELL>",
      "single_word": false,
      "lstrip": false,
      "rstrip": false,
      "normalized": false,
      "special": true
    }
  ],
  "normalizer": null,
  "pre_tokenizer": {
    "type": "ByteLevel",
    "add_prefix_space": false,
    "trim_offsets": true,
    "use_regex": true
  },
  "post_processor": {
    "type": "TemplateProcessing",
    "single": [
      {
        "SpecialToken": {
          "id": "<SOS>",
          "type_id": 0
        }
      },
      {
        "Sequence": {
          "id": "A",
          "type_id": 0
        }
      },
      {
        "SpecialToken": {
          "id": "<EOS>",
          "type_id": 0
        }
      }
    ],
    "pair": [
      {
        "SpecialToken": {
          "id": "<SOS>",
          "type_id": 0
        }
      },
      {
        "Sequence": {
          "id": "A",
          "type_id": 0
        }
      },
      {
        "SpecialToken": {
          "id": "<EOS>",
          "type_id": 0
        }
      },
      {
        "Sequence": {
          "id": "B",
          "type_id": 0
        }
      },
      {
        "SpecialToken": {
          "id": "<EOS>",
          "type_id": 0
        }
      }
    ],
    "special_tokens": {
      "<EOS>": {
        "id": "<EOS>",
        "ids": [
          1
        ],
        "tokens": [
          "<EOS>"
        ]
      },
      "<SOS>": {
        "id": "<SOS>",
        "ids": [
          0
        ],
        "tokens": [
          "<SOS>"
        ]
      }
    }
  },
  "decoder": {
    "type": "ByteLevel",
    "add_prefix_space": true,
    "trim_offsets": true,
    "use_regex": true
  },
  "model": {
    "type": "BPE",
    "dropout": null,
    "unk_token": null,
    "continuing_subword_prefix": null,
    "end_of_word_suffix": null,
    "fuse_unk": false,
    "byte_fallback": false,
    "ignore_merges": false,
    "vocab": {
      "<SOS>": 0,
      "<EOS>": 1,
      "<PAD>": 2,
      "<UNK>": 3,
      "<PLAYFUL>": 4,
      "<MYSTERIOUS>": 5,
      "<FORMAL>": 6,
      "<CASUAL>": 7,
      "<EXCITED>": 8,
      "<CALM>": 9,
      "<QUESTION>": 10,
      "<STATEMENT>": 11,
      "<COMMAND>": 12,
      "<GREETING>": 13,
      "<FAREWELL>": 14,
      "!": 15,
      "\"": 16,
      "#": 17,
      "$": 18,
      "%": 19,
      "&": 20,
      "'": 21,
      "(": 22,
      ")": 23,
      "*": 24,
      "+": 25,
      ",": 26,
      "-": 27,
      ".": 28,
      "/": 29,
      "0": 30,
      "1": 31,
      "2": 32,
      "3": 33,
      "4": 34,
      "5": 35,
      "6": 36,
      "7": 37,
      "8": 38,
      "9": 39,
      ":": 40,
      ";": 41,
      "<": 42,
      "=": 43,
      ">": 44,
      "?": 45,
      "@": 46,
      "A": 47,
      "B": 48,
      "C": 49,
      "D": 50,
      "E": 51,
      "F": 52,
      "G": 53,
      "H": 54,
      "I": 55,
      "J": 56,
      "K": 57,
      "L": 58,
      "M": 59,
      "N": 60,
      "O": 61,
      "P": 62,
      "Q": 63,
      "R": 64,
      "S": 65,
      "T": 66,
      "U": 67,
      "V": 68,
      "W": 69,
      "X": 70,
      "Y": 71,
      "Z": 72,
      "[": 73,
      "\\": 74,
      "]": 75,
      "^": 76,
      "_": 77,
      "`": 78,
      "a": 79,
      "b": 80,
      "c": 81,
      "d": 82,
      "e": 83,
      "f": 84,
      "g": 85,
      "h": 86,
      "i": 87,
      "j": 88,
      "k": 89,
      "l": 90,
      "m": 91,
      "n": 92,
      "o": 93,
      "p": 94,
      "q": 95,
      "r": 96,
      "s": 97,
      "t": 98,
      "u": 99,
      "v": 100,
      "w": 101,
      "x": 102,
      "y": 103,
      "z": 104,
      "{": 105,
      "|": 106,
      "}": 107,
      "~": 108,
      "¡": 109,
      "¢": 110,
      "£": 111,
      "¤": 112,
      "¥": 113,
      "¦": 114,
      "§": 115,
      "¨": 116,
      "©": 117,
      "ª": 118,
      "«": 119,
      "¬": 120,
      "®": 121,
      "¯": 122,
      "°": 123,
      "±": 124,
      "²": 125,
      "³": 126,
      "´": 127,
      "µ": 128,
      "¶": 129,
      "·": 130,
      "¸": 131,
      "¹": 132,
      "º": 133,
      "»": 134,
      "¼": 135,
      "½": 136,
      "¾": 137,
      "¿": 138,
      "À": 139,
      "Á": 140,
      "Â": 141,
      "Ã": 142,
      "Ä": 143,
      "Å": 144,
      "Æ": 145,
      "Ç": 146,
      "È": 147,
      "É": 148,
      "Ê": 149,
      "Ë": 150,
      "Ì": 151,
      "Í": 152,
      "Î": 153,
      "Ï": 154,
      "Ð": 155,
      "Ñ": 156,
      "Ò": 157,
      "Ó": 158,
      "Ô": 159,
      "Õ": 160,
      "Ö": 161,
      "×": 162,
      "Ø": 163,
      "Ù": 164,
      "Ú": 165,
      "Û": 166,
      "Ü": 167,
      "Ý": 168,
      "Þ": 169,
      "ß": 170,
      "à": 171,
      "á": 172,
      "â": 173,
      "ã": 174,
      "ä": 175,
      "å": 176,
      "æ": 177,
      "ç": 178,
      "è": 179,
      "é": 180,
      "ê": 181,
      "ë": 182,
      "ì": 183,
      "í": 184,
      "î": 185,
      "ï": 186,
      "ð": 187,
      "ñ": 188,
      "ò": 189,
      "ó": 190,
      "ô": 191,
      "õ": 192,
      "ö": 193,
      "÷": 194,
      "ø": 195,
      "ù": 196,
      "ú": 197,
      "û": 198,
      "ü": 199,
      "ý": 200,
      "þ": 201,
      "ÿ": 202,
      "Ā": 203,
      "ā": 204,
      "Ă": 205,
      "ă": 206,
      "Ą": 207,
      "ą": 208,
      "Ć": 209,
      "ć": 210,
      "Ĉ": 211,
      "ĉ": 212,
      "Ċ": 213,
      "ċ": 214,
      "Č": 215,
      "č": 216,
      "Ď": 217,
      "ď": 218,
      "Đ": 219,
      "đ": 220,
      "Ē": 221,
      "ē": 222,
      "Ĕ": 223,
      "ĕ": 224,
      "Ė": 225,
      "ė": 226,
      "Ę": 227,
      "ę": 228,
      "Ě": 229,
      "ě": 230,
      "Ĝ": 231,
      "ĝ": 232,
      "Ğ": 233,
      "ğ": 234,
      "Ġ": 235,
      "ġ": 236,
      "Ģ": 237,
      "ģ": 238,
      "Ĥ": 239,
      "ĥ": 240,
      "Ħ": 241,
      "ħ": 242,
      "Ĩ": 243,
      "ĩ": 244,
      "Ī": 245,
      "ī": 246,
      "Ĭ": 247,
      "ĭ": 248,
      "Į": 249,
      "į": 250,
      "İ": 251,
      "ı": 252,
      "Ĳ": 253,
      "ĳ": 254,
      "Ĵ": 255,
      "ĵ": 256,
      "Ķ": 257,
      "ķ": 258,
      "ĸ": 259,
      "Ĺ": 260,
      "ĺ": 261,
      "Ļ": 262,
      "ļ": 263,
      "Ľ": 264,
      "ľ": 265,
      "Ŀ": 266,
      "ŀ": 267,
      "Ł": 268,
      "ł": 269,
      "Ń": 270,
      "Ġt": 271,
      "Ġa": 272,
      "Ġi": 273,
      "Ġs": 274,
      "ou": 275,
      "at": 276,
      "he": 277,
      "re": 278,
      "Ġm": 279,
      "in": 280,
      "Ġy": 281,
      "Ġyou": 282,
      "Ġc": 283,
      "er": 284,
      "Ġf": 285,
      "Ġo": 286,
      "Ġthe": 287,
      "an": 288,
      "Ġw": 289,
      "Ġp": 290,
      "Ġb": 291,
      "hat": 292,
      "ing": 293,
      "it": 294,
      "or": 295,
      "es": 296,
      "en": 297,
      "Ġl": 298,
      "Ġd": 299,
      "on": 300,
      "Ġis": 301,
      "al": 302,
      "Ġan": 303,
      "Ġh": 304,
      "what": 305,
      "Ġof": 306,
      "ar": 307,
      "Ġn": 308,
      "Ġand": 309,
      "Ġyour": 310,
      "ed": 311,
      "ow": 312,
      "Ġto": 313,
      "st": 314,
      "ic": 315,
      "Ġe": 316,
      "ve": 317,
      "Ġin": 318,
      "un": 319,
      "Ġit": 320,
      "le": 321,
      "ly": 322,
      "are": 323,
      "Ġg": 324,
      "et": 325,
      "ro": 326,
      "ll": 327,
      "ur": 328,
      "ent": 329,
      "is": 330,
      "ion": 331,
      "ap": 332,
      "ver": 333,
      "as": 334,
      "..": 335,
      "Ġre": 336,
      "Ġmy": 337,
      "Ġme": 338,
      "oo": 339,
      "the": 340,
      "ct": 341,
      "Ġk": 342,
      "Ġfa": 343,
      "ay": 344,
      "me": 345,
      "Ġon": 346,
      "ig": 347,
      "Ġth": 348,
      "ite": 349,
      "um": 350,
      "Ġbe": 351,
      "Ġli": 352,
      "ce": 353,
      "vor": 354,
      "vorite": 355,
      "Ġfavorite": 356,
      "ke": 357,
      "Ġfor": 358,
      "Ġco": 359,
      "ot": 360,
      "ut": 361,
      "Ġst": 362,
      "ra": 363,
      "Ġthat": 364,
      "ul": 365,
      "Ġha": 366,
      "ir": 367,
      "us": 368,
      "Ġdo": 369,
      "im": 370,
      "rr": 371,
      "ck": 372,
      "Ġnap": 373,
      "Ġj": 374,
      "ch": 375,
      "ood": 376,
      "Ġma": 377,
      "id": 378,
      "Ġ1": 379,
      "ith": 380,
      "yn": 381,
      "il": 382,
      "ter": 383,
      "Ġso": 384,
      "Ġmo": 385,
      "Ġlyn": 386,
      "Ġcat": 387,
      "est": 388,
      "reat": 389,
      "...": 390,
      "Ġwith": 391,
      "do": 392,
      "ee": 393,
      "Ġare": 394,
      "pe": 395,
      "se": 396,
      "Ġhave": 397,
      "ld": 398,
      "Ġlike": 399,
      "ess": 400,
      "th": 401,
      "Ġpro": 402,
      "Ġal": 403,
      "Ġch": 404,
      "Ġju": 405,
      "Ġhum": 406,
      "Ġcan": 407,
      "qu": 408,
      "Ġr": 409,
      "Ġwh": 410,
      "igh": 411,
      "ab": 412,
      "Ġde": 413,
      "can": 414,
      "Ġex": 415,
      "Ġhe": 416,
      "Ġ2": 417,
      "Ġlynx": 418,
      "ect": 419,
      "ous": 420,
      "ge": 421,
      "Ġhuman": 422,
      "de": 423,
      "ate": 424,
      "Ġcon": 425,
      "Ġkn": 426,
      "if": 427,
      "all": 428,
      "ation": 429,
      "Ġv": 430,
      "very": 431,
      "ad": 432,
      "Ġwor": 433,
      "up": 434,
      "and": 435,
      "Ġat": 436,
      "am": 437,
      "ity": 438,
      "Ġwhe": 439,
      "Ġthing": 440,
      "Ġle": 441,
      "Ġun": 442,
      "oun": 443,
      "os": 444,
      "eet": 445,
      "Ġpre": 446,
      "ight": 447,
      "mp": 448,
      "ri": 449,
      "ally": 450,
      "Ġper": 451,
      "Ġam": 452,
      "rom": 453,
      "out": 454,
      "Ġne": 455,
      "ci": 456,
      "ain": 457,
      "ell": 458,
      "ping": 459,
      "uneet": 460,
      "Ġbut": 461,
      "wh": 462,
      "ol": 463,
      "Ġfrom": 464,
      "ant": 465,
      "Ġfood": 466,
      "Ġen": 467,
      "ive": 468,
      "ill": 469,
      "Ġsp": 470,
      "Ġpl": 471,
      "gh": 472,
      "Ġman": 473,
      "Ġas": 474,
      "Ġpuneet": 475,
      "Ġ3": 476,
      "Ġwe": 477,
      "ital": 478,
      "ff": 479,
      "Ġby": 480,
      "Ġab": 481,
      "Ġnot": 482,
      "Ġmany": 483,
      "Ġti": 484,
      "ment": 485,
      "ack": 486,
      "ful": 487,
      "Ġhow": 488,
      "how": 489,
      "ould": 490,
      "ist": 491,
      "Ġqu": 492,
      "Ġcl": 493,
      "Ġwhen": 494,
      "Ġser": 495,
      "able": 496,
      "Ġse": 497,
      "ious": 498,
      "ure": 499,
      "Ġsc": 500,
      "ound": 501,
      "Ġpur": 502,
      "ine": 503,
      "Ġjud": 504,
      "ough": 505,
      "Ġor": 506,
      "end": 507,
      "ind": 508,
      "ish": 509,
      "Ġnapping": 510,
      "ore": 511,
      "ock": 512,
      "arn": 513,
      "Ġover": 514,
      "Ġcreat": 515,
      "ie": 516,
      "Ġ.": 517,
      "Ġthings": 518,
      "Ġmost": 519,
      "art": 520,
      "Ġlynxes": 521,
      "ich": 522,
      "Ġevery": 523,
      "ry": 524,
      "Ġ4": 525,
      "our": 526,
      "ber": 527,
      "Ġtime": 528,
      "mm": 529,
      "Ġtreat": 530,
      "Ġlo": 531,
      "op": 532,
      "so": 533,
      "ory": 534,
      "ss": 535,
      "ting": 536,
      "Ġone": 537,
      "Ġsh": 538,
      "Ġcode": 539,
      "Ġall": 540,
      "Ġgood": 541,
      "king": 542,
      "ays": 543,
      "Ġjust": 544,
      "ass": 545,
      "bit": 546,
      "ast": 547,
      "pt": 548,
      "Ġbu": 549,
      "imes": 550,
      "Ġknow": 551,
      "pur": 552,
      "ical": 553,
      "Ġeat": 554,
      "ard": 555,
      "Ġbl": 556,
      "Ġhumans": 557,
      "Ġlearn": 558,
      "ong": 559,
      "Ġalso": 560,
      "Ġknock": 561,
      "Ġar": 562,
      "Ġspe": 563,
      "be": 564,
      "Ġcur": 565,
      "Ġcap": 566,
      "Ġpurr": 567,
      "Ġfe": 568,
      "Ġint": 569,
      "purrr": 570,
      "Ġus": 571,
      "Ġ10": 572,
      "ide": 573,
      "tern": 574,
      "Ġabout": 575,
      "Ġup": 576,
      "Ġwhat": 577,
      "Ġsy": 578,
      "una": 579,
      "Ġdig": 580,
      "ip": 581,
      "Ġno": 582,
      "iv": 583,
      "ac": 584,
      "der": 585,
      "Ġro": 586,
      "ies": 587,
      "Ġche": 588,
      "Ġthis": 589,
      "Ġperf": 590,
      "Ġve": 591,
      "ort": 592,
      "Ġdat": 593,
      "arm": 594,
      "Ġtreats": 595,
      "tain": 596,
      "ence": 597,
      "Ġjudg": 598,
      "ary": 599,
      "Ġmean": 600,
      "Ġwho": 601,
      "fe": 602,
      "qbit": 603,
      "Ġent": 604,
      "Ġvery": 605,
      "Ġexp": 606,
      "Ġfun": 607,
      "my": 608,
      "Ġfl": 609,
      "ance": 610,
      "Ġho": 611,
      "Ġget": 612,
      "Ġmeow": 613,
      "aw": 614,
      "day": 615,
      "ire": 616,
      "Ġtimes": 617,
      "Ġpat": 618,
      "Ġdigital": 619,
      "Ġbo": 620,
      "one": 621,
      "ions": 622,
      "Ġmore": 623,
      "thing": 624,
      "Ġ0": 625,
      "Ġ5": 626,
      "atch": 627,
      "ream": 628,
      "Ġwas": 629,
      "ers": 630,
      "iss": 631,
      "vers": 632,
      "Ġthey": 633,
      "Ġhun": 634,
      "ame": 635,
      "ves": 636,
      "Ġdata": 637,
      "ang": 638,
      "Ġte": 639,
      "Ġgo": 640,
      "ty": 641,
      "Ġsu": 642,
      "ated": 643,
      "Ġlynqbit": 644,
      "why": 645,
      "cc": 646,
      "Ġ8": 647,
      "Ġad": 648,
      "Ġsn": 649,
      "Ġcha": 650,
      "Ġ6": 651,
      "ice": 652,
      "Ġ7": 653,
      "Ġta": 654,
      "Ġtr": 655,
      "Ġsee": 656,
      "Ġday": 657,
      "ble": 658,
      "iz": 659,
      "ted": 660,
      "yes": 661,
      "Ġkind": 662,
      "ishra": 663,
      "Ġperfect": 664,
      "lf": 665,
      "ts": 666,
      "Ġsm": 667,
      "red": 668,
      "Ġcomp": 669,
      "Ġwhich": 670,
      "ile": 671,
      "Ġfur": 672,
      "Ġany": 673,
      "Ġcomm": 674,
      "ations": 675,
      "ian": 676,
      "ick": 677,
      "Ġgen": 678,
      "age": 679,
      "Ġ9": 680,
      "Ġty": 681,
      "Ġeff": 682,
      "du": 683,
      "met": 684,
      "Ġoff": 685,
      "Ġnow": 686,
      "ep": 687,
      "ways": 688,
      "Ġdon": 689,
      "purrrr": 690,
      "Ġmishra": 691,
      "meow": 692,
      "Ġspeci": 693,
      "Ġcapital": 694,
      "Ġsun": 695,
      "Ġchat": 696,
      "ors": 697,
      "ase": 698,
      "co": 699,
      "Ġz": 700,
      "Ġwarm": 701,
      "ther": 702,
      "gg": 703,
      "ds": 704,
      "Ġwould": 705,
      "ens": 706,
      "Ġalways": 707,
      "Ġlove": 708,
      "Ġtuna": 709,
      "Ġsound": 710,
      "Ġbir": 711,
      "kes": 712,
      "Ġif": 713,
      "Ġreal": 714,
      "rrrr": 715,
      "Ġop": 716,
      "Ġpo": 717,
      "its": 718,
      "ey": 719,
      "hing": 720,
      "ual": 721,
      "Ġsass": 722,
      "Ġhas": 723,
      "riend": 724,
      "Ġplay": 725,
      "act": 726,
      "ace": 727,
      "Ġcall": 728,
      "ult": 729,
      "Ġ20": 730,
      "Ġworld": 731,
      "Ġquest": 732,
      "ks": 733,
      "Ġthere": 734,
      "ise": 735,
      "gs": 736,
      "gic": 737,
      "ue": 738,
      "Ġout": 739,
      "Ġsur": 740,
      "Ġthem": 741,
      "ars": 742,
      "Ġmay": 743,
      "Ġlar": 744,
      "Ġdream": 745,
      "ient": 746,
      "Ġter": 747,
      "umber": 748,
      "Ġsomet": 749,
      "Ġsec": 750,
      "Ġtell": 751,
      "Ġcould": 752,
      "Ġfriend": 753,
      "ower": 754,
      "Ġmain": 755,
      "self": 756,
      "Ġserver": 757,
      "om": 758,
      "ud": 759,
      "Ġnaps": 760,
      "Ġeverything": 761,
      "Ġart": 762,
      "te": 763,
      "Ġap": 764,
      "Ġll": 765,
      "Ġnumber": 766,
      "app": 767,
      "Ġkum": 768,
      "Ġwhere": 769,
      "Ġchaos": 770,
      "Ġkumar": 771,
      "ag": 772,
      "Ġstr": 773,
      "sh": 774,
      "Ġbet": 775,
      "owl": 776,
      "Ġtoday": 777,
      "eep": 778,
      "Ġdes": 779,
      "ook": 780,
      "Ġ11": 781,
      "ste": 782,
      "Ġthr": 783,
      "eel": 784,
      "ning": 785,
      "her": 786,
      "ree": 787,
      "ink": 788,
      "Ġob": 789,
      "lp": 790,
      "mb": 791,
      "Ġai": 792,
      "Ġfeel": 793,
      "vel": 794,
      "aus": 795,
      "gest": 796,
      "Ġdis": 797,
      "ets": 798,
      "Ġlife": 799,
      "Ġenter": 800,
      "sw": 801,
      "ren": 802,
      "Ġmake": 803,
      "Ġneed": 804,
      "cess": 805,
      "to": 806,
      "Ġsle": 807,
      "Ġcle": 808,
      "Ġwill": 809,
      "Ġpe": 810,
      "Ġhour": 811,
      "Ġhair": 812,
      "who": 813,
      "ak": 814,
      "less": 815,
      "ust": 816,
      "zz": 817,
      "ating": 818,
      "Ġph": 819,
      "llo": 820,
      "Ġkey": 821,
      "aut": 822,
      "Ġsk": 823,
      "Ġinv": 824,
      "irt": 825,
      "Ġjo": 826,
      "Ġnew": 827,
      "Ġscr": 828,
      "Ġjudgment": 829,
      "lor": 830,
      "inter": 831,
      "lyn": 832,
      "Ġunder": 833,
      "which": 834,
      "Ġpattern": 835,
      "ho": 836,
      "Ġtra": 837,
      "ster": 838,
      "Ġgr": 839,
      "Ġonly": 840,
      "Ġcons": 841,
      "Ġnever": 842,
      "Ġtype": 843,
      "gn": 844,
      "ull": 845,
      "Ġjudge": 846,
      "Ġlearning": 847,
      "bo": 848,
      "ven": 849,
      "xes": 850,
      "ath": 851,
      "alls": 852,
      "Ġvirt": 853,
      "Ġmostly": 854,
      "beam": 855,
      "ose": 856,
      "Ġact": 857,
      "ouse": 858,
      "ater": 859,
      "Ġres": 860,
      "Ġbeaut": 861,
      "Ġmakes": 862,
      "Ġhelp": 863,
      "Ġsunbeam": 864,
      "Ġthrough": 865,
      "mical": 866,
      "Ġsup": 867,
      "Ġdid": 868,
      "Ġplan": 869,
      "Ġchemical": 870,
      "25": 871,
      "gy": 872,
      "Ġra": 873,
      "Ġtal": 874,
      "Ġansw": 875,
      "Ġhapp": 876,
      "Ġatt": 877,
      "Ġuni": 878,
      "Ġbuil": 879,
      "Ġuse": 880,
      "Ġeffic": 881,
      "Ġentertain": 882,
      "Ġbr": 883,
      "Ġbowl": 884,
      "Ġdoes": 885,
      "Ġprey": 886,
      "Ġsymb": 887,
      "Ġthen": 888,
      "Ġhand": 889,
      "Ġgif": 890,
      "Ġbel": 891,
      "cept": 892,
      "Ġinto": 893,
      "Ġ100": 894,
      "stem": 895,
      "line": 896,
      "Ġsl": 897,
      "Ġinf": 898,
      "Ġcats": 899,
      "Ġprocess": 900,
      "Ġright": 901,
      "Ġdem": 902,
      "Ġpers": 903,
      "cy": 904,
      "whe": 905,
      "Ġbot": 906,
      "orm": 907,
      "ons": 908,
      "imal": 909,
      "Ġsol": 910,
      "Ġgener": 911,
      "Ġplayful": 912,
      "een": 913,
      "ia": 914,
      "ience": 915,
      "ject": 916,
      "ually": 917,
      "Ġaf": 918,
      "Ġlong": 919,
      "ility": 920,
      "Ġconvers": 921,
      "purrrrt": 922,
      "Ġanswer": 923,
      "Ġsymbol": 924,
      "Ġag": 925,
      "Ġimp": 926,
      "Ġtheir": 927,
      "Ġpower": 928,
      "itt": 929,
      "Ġele": 930,
      "ign": 931,
      "Ġcont": 932,
      "Ġsystem": 933,
      "ause": 934,
      "Ġsleep": 935,
      "board": 936,
      "Ġperson": 937,
      "ake": 938,
      "den": 939,
      "tell": 940,
      "oud": 941,
      "chie": 942,
      "Ġcalled": 943,
      "Ġ2025": 944,
      "Ġlargest": 945,
      "Ġscratch": 946,
      "ial": 947,
      "you": 948,
      "Ġnat": 949,
      "ict": 950,
      "Ġhome": 951,
      "Ġ09": 952,
      "Ġes": 953,
      "Ġsim": 954,
      "Ġcr": 955,
      "Ġpr": 956,
      "Ġred": 957,
      "Ġenough": 958,
      "Ġvirtual": 959,
      "pl": 960,
      "Ġintern": 961,
      "ction": 962,
      "Ġbeing": 963,
      "Ġbeen": 964,
      "ram": 965,
      "Ġkeyboard": 966,
      "ness": 967,
      "Ġac": 968,
      "hello": 969,
      "Ġocc": 970,
      "iful": 971,
      "Ġfeline": 972,
      "Ġopen": 973,
      "Ġbeautiful": 974,
      "oc": 975,
      "Ġsa": 976,
      "Ġwatch": 977,
      "ark": 978,
      "ically": 979,
      "ason": 980,
      "oom": 981,
      "Ġrun": 982,
      "Ġspecies": 983,
      "Ġefficient": 984,
      "dy": 985,
      "hiss": 986,
      "Ġfull": 987,
      "Ġopt": 988,
      "Ġback": 989,
      "Ġear": 990,
      "Ġwhile": 991,
      "Ġwork": 992,
      "Ġcreated": 993,
      "Ġhours": 994,
      "host": 995,
      "Ġshe": 996,
      "Ġmu": 997,
      "inary": 998,
      "Ġye": 999,
      "Ġother": 1000,
      "Ġpart": 1001,
      "Ġgra": 1002,
      "Ġghost": 1003,
      "Ġmagic": 1004,
      "Ġsmall": 1005,
      "Ġquestions": 1006,
      "ced": 1007,
      "les": 1008,
      "ys": 1009,
      "Ġbra": 1010,
      "Ġstory": 1011,
      "Ġsome": 1012,
      "Ġtail": 1013,
      "Ġsomething": 1014,
      "Ġoccas": 1015,
      "ach": 1016,
      "Ġtry": 1017,
      "int": 1018,
      "Ġwant": 1019,
      "stand": 1020,
      "urn": 1021,
      "Ġthough": 1022,
      "ute": 1023,
      "Ġend": 1024,
      "Ġclean": 1025,
      "Ġhairb": 1026,
      "fl": 1027,
      "ky": 1028,
      "pr": 1029,
      "xt": 1030,
      "Ġaw": 1031,
      "ress": 1032,
      "Ġmin": 1033,
      "Ġyes": 1034,
      "Ġbre": 1035,
      "Ġbest": 1036,
      "Ġanimal": 1037,
      "Ġem": 1038,
      "dom": 1039,
      "Ġword": 1040,
      "Ġspot": 1041,
      "Ġsecre": 1042,
      "lynxes": 1043,
      "Ġmuch": 1044,
      "bu": 1045,
      "bab": 1046,
      "cause": 1047,
      "dat": 1048,
      "wor": 1049,
      "Ġed": 1050,
      "Ġfo": 1051,
      "Ġpaw": 1052,
      "ool": 1053,
      "Ġaround": 1054,
      "Ġexper": 1055,
      "Ġskill": 1056,
      "Ġoccasion": 1057,
      "ft": 1058,
      "tuna": 1059,
      "Ġmis": 1060,
      "Ġway": 1061,
      "ings": 1062,
      "Ġinter": 1063,
      "Ġlist": 1064,
      "Ġlive": 1065,
      "Ġcom": 1066,
      "Ġprov": 1067,
      "Ġjudging": 1068,
      "Ġflo": 1069,
      "Ġspecial": 1070,
      "come": 1071,
      "Ġpointer": 1072,
      "Ġpatterns": 1073,
      "00": 1074,
      "ily": 1075,
      "iet": 1076,
      "pro": 1077,
      "ving": 1078,
      "Ġtable": 1079,
      "Ġsme": 1080,
      "Ġfir": 1081,
      "Ġwater": 1082,
      "Ġpet": 1083,
      "Ġbig": 1084,
      "Ġmem": 1085,
      "Ġthan": 1086,
      "ady": 1087,
      "Ġterr": 1088,
      "Ġsmell": 1089,
      "Ġsou": 1090,
      "Ġfore": 1091,
      "Ġloo": 1092,
      "own": 1093,
      "Ġtoo": 1094,
      "Ġgreat": 1095,
      "Ġlives": 1096,
      "Ġform": 1097,
      "Ġdel": 1098,
      "Ġexist": 1099,
      "Ġbugs": 1100,
      "Ġsnow": 1101,
      "Ġcommon": 1102,
      "Ġbelie": 1103,
      "Ġer": 1104,
      "Ġow": 1105,
      "ention": 1106,
      "Ġrel": 1107,
      "Ġheart": 1108,
      "Ġspir": 1109,
      "Ġsub": 1110,
      "Ġhairballs": 1111,
      "hh": 1112,
      "Ġsw": 1113,
      "Ġsit": 1114,
      "inite": 1115,
      "Ġnight": 1116,
      "Ġbecause": 1117,
      "cell": 1118,
      "peci": 1119,
      "ellig": 1120,
      "Ġseason": 1121,
      "Ġknown": 1122,
      "Ġcurious": 1123,
      "Ġintellig": 1124,
      "Ġbox": 1125,
      "ized": 1126,
      "Ġsmart": 1127,
      "Ġbetter": 1128,
      "Ġdemand": 1129,
      "Ġbelieve": 1130,
      "ric": 1131,
      "Ġmess": 1132,
      "Ġbur": 1133,
      "aring": 1134,
      "Ġname": 1135,
      "ross": 1136,
      "they": 1137,
      "Ġkeep": 1138,
      "Ġcolor": 1139,
      "irky": 1140,
      "Ġchase": 1141,
      "ection": 1142,
      "ific": 1143,
      "Ġworth": 1144,
      "Ġquirky": 1145,
      "Ġpatience": 1146,
      "Ġsnack": 1147,
      "Ġzoom": 1148,
      "Ġespeci": 1149,
      "Ġespecially": 1150,
      "cur": 1151,
      "ha": 1152,
      "io": 1153,
      "no": 1154,
      "til": 1155,
      "ved": 1156,
      "vious": 1157,
      "Ġsing": 1158,
      "atic": 1159,
      "Ġpack": 1160,
      "alc": 1161,
      "Ġemp": 1162,
      "Ġgl": 1163,
      "Ġrare": 1164,
      "Ġdebu": 1165,
      "Ġpres": 1166,
      "cious": 1167,
      "Ġwere": 1168,
      "Ġexpl": 1169,
      "Ġbuilt": 1170,
      "Ġgift": 1171,
      "Ġmischie": 1172,
      "che": 1173,
      "ding": 1174,
      "ms": 1175,
      "ny": 1176,
      "ped": 1177,
      "Ġ...": 1178,
      "Ġtri": 1179,
      "ates": 1180,
      "ange": 1181,
      "Ġking": 1182,
      "Ġext": 1183,
      "Ġexcell": 1184,
      "Ġvis": 1185,
      "ada": 1186,
      "Ġattention": 1187,
      "Ġfirst": 1188,
      "Ġmemory": 1189,
      "fer": 1190,
      "ior": 1191,
      "pose": 1192,
      "ugh": 1193,
      "Ġmet": 1194,
      "Ġmus": 1195,
      "Ġfr": 1196,
      "ency": 1197,
      "Ġdram": 1198,
      "Ġhiss": 1199,
      "Ġyourself": 1200,
      "Ġeven": 1201,
      "verse": 1202,
      "Ġprodu": 1203,
      "Ġalg": 1204,
      "Ġuntil": 1205,
      "olo": 1206,
      "ivity": 1207,
      "Ġfunction": 1208,
      "Ġhunt": 1209,
      "Ġhunting": 1210,
      "rent": 1211,
      "Ġunderstand": 1212,
      "where": 1213,
      "Ġpersonal": 1214,
      "Ġfoll": 1215,
      "Ġdebugg": 1216,
      "augh": 1217,
      "lcome": 1218,
      "Ġaff": 1219,
      "Ġign": 1220,
      "Ġshow": 1221,
      "ather": 1222,
      "iness": 1223,
      "Ġfind": 1224,
      "Ġlang": 1225,
      "ural": 1226,
      "Ġmaster": 1227,
      "Ġprobab": 1228,
      "Ġhere": 1229,
      "Ġsometimes": 1230,
      "Ġobvious": 1231,
      "Ġpeace": 1232,
      "Ġresp": 1233,
      "Ġhandle": 1234,
      "Ġgenerate": 1235,
      "Ġafter": 1236,
      "Ġagain": 1237,
      "Ġinternet": 1238,
      "Ġearth": 1239,
      "Ġerr": 1240,
      "alcul": 1241,
      "Ġlangu": 1242,
      "per": 1243,
      "puneet": 1244,
      "Ġwr": 1245,
      "orith": 1246,
      "Ġlas": 1247,
      "Ġlight": 1248,
      "Ġdot": 1249,
      "ract": 1250,
      "Ġ12": 1251,
      "Ġproble": 1252,
      "Ġblack": 1253,
      "Ġknocked": 1254,
      "Ġsuper": 1255,
      "Ġtalent": 1256,
      "Ġthought": 1257,
      "Ġspirit": 1258,
      "Ġalgorith": 1259,
      "cle": 1260,
      "min": 1261,
      "ph": 1262,
      "ub": 1263,
      "uff": 1264,
      "ween": 1265,
      "Ġtre": 1266,
      "Ġbus": 1267,
      "als": 1268,
      "ows": 1269,
      "Ġgame": 1270,
      "Ġmyself": 1271,
      "Ġfact": 1272,
      "Ġmode": 1273,
      "Ġvac": 1274,
      "Ġwelcome": 1275,
      "Ġability": 1276,
      "berian": 1277,
      "Ġentire": 1278,
      "Ġadv": 1279,
      "Ġcommun": 1280,
      "Ġbirds": 1281,
      "Ġsurpr": 1282,
      "Ġbetween": 1283,
      "Ġdeser": 1284,
      "Ġboth": 1285,
      "Ġoptim": 1286,
      "Ġforest": 1287,
      "Ġlanguage": 1288,
      "cent": 1289,
      "ib": 1290,
      "ios": 1291,
      "pend": 1292,
      "ude": 1293,
      "Ġim": 1294,
      "Ġmon": 1295,
      "Ġmouse": 1296,
      "Ġfre": 1297,
      "Ġwa": 1298,
      "Ġbat": 1299,
      "Ġdist": 1300,
      "Ġdance": 1301,
      "Ġdeep": 1302,
      "Ġstud": 1303,
      "usion": 1304,
      "que": 1305,
      "Ġclim": 1306,
      "Ġbug": 1307,
      "Ġquestion": 1308,
      "Ġplanet": 1309,
      "Ġhappy": 1310,
      "Ġlisten": 1311,
      "Ġown": 1312,
      "Ġempty": 1313,
      "Ġmischief": 1314,
      "Ġexcellent": 1315,
      "Ġobviously": 1316,
      "Ġsil": 1317,
      "reet": 1318,
      "Ġland": 1319,
      "uring": 1320,
      "otic": 1321,
      "Ġstart": 1322,
      "Ġmade": 1323,
      "Ġprot": 1324,
      "oss": 1325,
      "cient": 1326,
      "ored": 1327,
      "Ġcreator": 1328,
      "Ġcreative": 1329,
      "ize": 1330,
      "Ġmaybe": 1331,
      "Ġunique": 1332,
      "Ġsecret": 1333,
      "Ġintelligent": 1334,
      "Ġmusic": 1335,
      "Ġcommunic": 1336,
      "iosity": 1337,
      "ah": 1338,
      "ible": 1339,
      "ware": 1340,
      "Ġsay": 1341,
      "ats": 1342,
      "Ġmar": 1343,
      "Ġmight": 1344,
      "orn": 1345,
      "Ġlook": 1346,
      "Ġdown": 1347,
      "Ġits": 1348,
      "isss": 1349,
      "ape": 1350,
      "apt": 1351,
      "ased": 1352,
      "Ġret": 1353,
      "Ġfast": 1354,
      "Ġones": 1355,
      "Ġthink": 1356,
      "Ġcanada": 1357,
      "Ġdef": 1358,
      "Ġpurpose": 1359,
      "Ġshould": 1360,
      "Ġbody": 1361,
      "Ġtake": 1362,
      "Ġfurry": 1363,
      "Ġsurv": 1364,
      "Ġconversations": 1365,
      "el": 1366,
      "ten": 1367,
      "uum": 1368,
      "ying": 1369,
      "Ġav": 1370,
      "Ġcup": 1371,
      "Ġcoun": 1372,
      "Ġfan": 1373,
      "Ġfool": 1374,
      "ank": 1375,
      "Ġwal": 1376,
      "Ġwell": 1377,
      "Ġduring": 1378,
      "ution": 1379,
      "ush": 1380,
      "Ġsoft": 1381,
      "pect": 1382,
      "Ġ25": 1383,
      "Ġprecious": 1384,
      "Ġprefer": 1385,
      "Ġener": 1386,
      "ortant": 1387,
      "Ġcomple": 1388,
      "Ġbirth": 1389,
      "ship": 1390,
      "Ġjoke": 1391,
      "Ġinfinite": 1392,
      "Ġimportant": 1393,
      "Ġbreak": 1394,
      "Ġterrit": 1395,
      "Ġprobably": 1396,
      "Ġlaser": 1397,
      "Ġvacuum": 1398,
      "ium": 1399,
      "ius": 1400,
      "rup": 1401,
      "Ġtw": 1402,
      "Ġsong": 1403,
      "Ġfound": 1404,
      "Ġpop": 1405,
      "Ġlast": 1406,
      "Ġdet": 1407,
      "Ġdang": 1408,
      "uras": 1409,
      "Ġ15": 1410,
      "Ġlead": 1411,
      "Ġpercent": 1412,
      "Ġclaw": 1413,
      "Ġcloud": 1414,
      "Ġfeed": 1415,
      "Ġused": 1416,
      "Ġtemp": 1417,
      "ccess": 1418,
      "Ġeffect": 1419,
      "Ġbird": 1420,
      "rrrrrrrr": 1421,
      "Ġfriendly": 1422,
      "Ġobject": 1423,
      "Ġphys": 1424,
      "Ġjudgmental": 1425,
      "Ġsunbeams": 1426,
      "Ġuniverse": 1427,
      "urasian": 1428,
      "eal": 1429,
      "ier": 1430,
      "led": 1431,
      "mber": 1432,
      "oy": 1433,
      "side": 1434,
      "xim": 1435,
      "Ġhat": 1436,
      "ature": 1437,
      "Ġcare": 1438,
      "Ġcell": 1439,
      "Ġwin": 1440,
      "Ġboo": 1441,
      "eng": 1442,
      "Ġlow": 1443,
      "Ġhigh": 1444,
      "ics": 1445,
      "Ġreb": 1446,
      "ulation": 1447,
      "Ġmove": 1448,
      "Ġprog": 1449,
      "Ġdevel": 1450,
      "Ġpredat": 1451,
      "Ġconversation": 1452,
      "Ġbrain": 1453,
      "Ġemot": 1454,
      "Ġpackets": 1455,
      "Ġdebugging": 1456,
      "by": 1457,
      "get": 1458,
      "hisss": 1459,
      "Ġ?": 1460,
      "Ġiberian": 1461,
      "Ġmi": 1462,
      "Ġbit": 1463,
      "Ġbal": 1464,
      "itty": 1465,
      "Ġhard": 1466,
      "Ġhouse": 1467,
      "Ġgive": 1468,
      "Ġreme": 1469,
      "Ġstill": 1470,
      "Ġcatch": 1471,
      "Ġchar": 1472,
      "Ġconf": 1473,
      "Ġlea": 1474,
      "Ġpret": 1475,
      "Ġserv": 1476,
      "ople": 1477,
      "Ġcuriosity": 1478,
      "Ġappro": 1479,
      "Ġstrate": 1480,
      "Ġhelpful": 1481,
      "Ġnatural": 1482,
      "Ġacross": 1483,
      "Ġyears": 1484,
      "Ġfloor": 1485,
      "Ġdramatic": 1486,
      "Ġrespons": 1487,
      "Ġcells": 1488,
      "Ġdevelop": 1489,
      "Ġremember": 1490,
      "cu": 1491,
      "fore": 1492,
      "gan": 1493,
      "gical": 1494,
      "nip": 1495,
      "row": 1496,
      "tle": 1497,
      "Ġir": 1498,
      "Ġcent": 1499,
      "Ġcir": 1500,
      "Ġcour": 1501,
      "Ġfant": 1502,
      "Ġbinary": 1503,
      "ited": 1504,
      "Ġdest": 1505,
      "ony": 1506,
      "ctive": 1507,
      "Ġ18": 1508,
      "ild": 1509,
      "Ġservers": 1510,
      "Ġblue": 1511,
      "Ġchaotic": 1512,
      "Ġcomput": 1513,
      "Ġgenius": 1514,
      "Ġstrong": 1515,
      "Ġpeople": 1516,
      "Ġsoul": 1517,
      "Ġdelic": 1518,
      "Ġburden": 1519,
      "Ġfollow": 1520,
      "Ġimag": 1521,
      "Ġenergy": 1522,
      "Ġdanger": 1523,
      "Ġcourse": 1524,
      "ces": 1525,
      "good": 1526,
      "port": 1527,
      "uc": 1528,
      "Ġill": 1529,
      "Ġmice": 1530,
      "Ġwro": 1531,
      "Ġwise": 1532,
      "ene": 1533,
      "Ġlet": 1534,
      "Ġlitt": 1535,
      "alty": 1536,
      "Ġnet": 1537,
      "icated": 1538,
      "Ġev": 1539,
      "Ġeurasian": 1540,
      "lease": 1541,
      "ents": 1542,
      "ash": 1543,
      "Ġreg": 1544,
      "Ġready": 1545,
      "Ġmach": 1546,
      "Ġmamm": 1547,
      "ilar": 1548,
      "eeee": 1549,
      "pear": 1550,
      "Ġwhis": 1551,
      "Ġvill": 1552,
      "Ġserious": 1553,
      "Ġusually": 1554,
      "Ġperform": 1555,
      "Ġtrick": 1556,
      "Ġsecon": 1557,
      "Ġdesign": 1558,
      "Ġdoesn": 1559,
      "Ġprim": 1560,
      "Ġendless": 1561,
      "work": 1562,
      "Ġpeaceful": 1563,
      "Ġalgorithm": 1564,
      "Ġfoolish": 1565,
      "Ġeffective": 1566,
      "Ġillusion": 1567,
      "Ġwrote": 1568,
      "Ġlittle": 1569,
      "cl": 1570,
      "oid": 1571,
      "uct": 1572,
      "hed": 1573,
      "Ġcor": 1574,
      "Ġways": 1575,
      "Ġpoun": 1576,
      "itude": 1577,
      "Ġhis": 1578,
      "Ġhist": 1579,
      "oof": 1580,
      "Ġkitt": 1581,
      "Ġkitty": 1582,
      "rag": 1583,
      "Ġ13": 1584,
      "Ġmoment": 1585,
      "add": 1586,
      "Ġworship": 1587,
      "Ġlevel": 1588,
      "Ġserve": 1589,
      "Ġroom": 1590,
      "Ġfluff": 1591,
      "Ġtext": 1592,
      "Ġtrain": 1593,
      "Ġslow": 1594,
      "Ġelect": 1595,
      "Ġprotect": 1596,
      "Ġsurvive": 1597,
      "cat": 1598,
      "con": 1599,
      "ner": 1600,
      "Ġtu": 1601,
      "Ġmed": 1602,
      "Ġcar": 1603,
      "Ġfut": 1604,
      "Ġfire": 1605,
      "Ġel": 1606,
      "Ġever": 1607,
      "Ġgiv": 1608,
      "Ġmyster": 1609,
      "Ġstream": 1610,
      "Ġsteal": 1611,
      "Ġexact": 1612,
      "ately": 1613,
      "osed": 1614,
      "Ġplant": 1615,
      "Ġask": 1616,
      "Ġclass": 1617,
      "Ġcreate": 1618,
      "ival": 1619,
      "Ġsuccess": 1620,
      "duce": 1621,
      "Ġartist": 1622,
      "Ġinvol": 1623,
      "Ġnature": 1624,
      "Ġskilled": 1625,
      "Ġoccasional": 1626,
      "Ġoccasionally": 1627,
      "Ġprovide": 1628,
      "Ġlooking": 1629,
      "Ġzoomies": 1630,
      "Ġerror": 1631,
      "Ġstudent": 1632,
      "Ġclimb": 1633,
      "cuits": 1634,
      "Ġdestro": 1635,
      "eow": 1636,
      "fect": 1637,
      "mer": 1638,
      "ove": 1639,
      "other": 1640,
      "Ġtree": 1641,
      "Ġcook": 1642,
      "Ġcalcul": 1643,
      "Ġfin": 1644,
      "anced": 1645,
      "Ġpri": 1646,
      "ition": 1647,
      "Ġdr": 1648,
      "Ġdri": 1649,
      "ales": 1650,
      "Ġhid": 1651,
      "Ġoften": 1652,
      "asy": 1653,
      "Ġbeha": 1654,
      "Ġstate": 1655,
      "Ġhabit": 1656,
      "Ġdogs": 1657,
      "Ġprof": 1658,
      "Ġhead": 1659,
      "ands": 1660,
      "Ġenc": 1661,
      "Ġene": 1662,
      "Ġspace": 1663,
      "Ġshort": 1664,
      "Ġtrue": 1665,
      "Ġrack": 1666,
      "Ġghosts": 1667,
      "Ġinteract": 1668,
      "Ġprovid": 1669,
      "Ġpresent": 1670,
      "Ġvision": 1671,
      "Ġignore": 1672,
      "Ġcomplex": 1673,
      "Ġbirthday": 1674,
      "Ġreboo": 1675,
      "Ġpretend": 1676,
      "Ġresponses": 1677,
      "Ġmachine": 1678,
      "Ġbehav": 1679,
      "dig": 1680,
      "hy": 1681,
      "joy": 1682,
      "main": 1683,
      "ume": 1684,
      "Ġtast": 1685,
      "Ġsigh": 1686,
      "Ġsame": 1687,
      "Ġmor": 1688,
      "Ġmot": 1689,
      "Ġmult": 1690,
      "Ġmath": 1691,
      "Ġwit": 1692,
      "Ġwild": 1693,
      "Ġpets": 1694,
      "Ġbad": 1695,
      "ord": 1696,
      "ense": 1697,
      "Ġlaugh": 1698,
      "Ġdif": 1699,
      "Ġanother": 1700,
      "Ġhol": 1701,
      "Ġequ": 1702,
      "etah": 1703,
      "ump": 1704,
      "Ġbefore": 1705,
      "Ġstare": 1706,
      "Ġstack": 1707,
      "ird": 1708,
      "Ġdomin": 1709,
      "Ġmagn": 1710,
      "Ġwithout": 1711,
      "eeeow": 1712,
      "Ġcho": 1713,
      "Ġdepend": 1714,
      "Ġunl": 1715,
      "Ġqueen": 1716,
      "Ġsche": 1717,
      "rypt": 1718,
      "Ġknocking": 1719,
      "Ġcurse": 1720,
      "Ġcurrent": 1721,
      "Ġgetting": 1722,
      "Ġ50": 1723,
      "dule": 1724,
      "Ġinvest": 1725,
      "Ġjob": 1726,
      "Ġprocessing": 1727,
      "Ġpaws": 1728,
      "Ġtrees": 1729,
      "Ġcount": 1730,
      "Ġterritory": 1731,
      "Ġdelicious": 1732,
      "Ġpounce": 1733,
      "Ġexactly": 1734,
      "Ġdestroy": 1735,
      "Ġbehavior": 1736,
      "ax": 1737,
      "ail": 1738,
      "cer": 1739,
      "ger": 1740,
      "iant": 1741,
      "ling": 1742,
      "ple": 1743,
      "ton": 1744,
      "yalty": 1745,
      "Ġ!": 1746,
      "reme": 1747,
      "ines": 1748,
      "inking": 1749,
      "Ġfish": 1750,
      "Ġwis": 1751,
      "ities": 1752,
      "Ġlap": 1753,
      "asing": 1754,
      "Ġrequ": 1755,
      "Ġsoci": 1756,
      "ables": 1757,
      "Ġhero": 1758,
      "mph": 1759,
      "Ġenjoy": 1760,
      "ures": 1761,
      "Ġscre": 1762,
      "Ġ40": 1763,
      "Ġspeed": 1764,
      "Ġupon": 1765,
      "Ġmeans": 1766,
      "Ġfunny": 1767,
      "Ġadapt": 1768,
      "Ġ60": 1769,
      "Ġsounds": 1770,
      "Ġsassy": 1771,
      "Ġdreams": 1772,
      "Ġdisap": 1773,
      "Ġclever": 1774,
      "Ġbring": 1775,
      "Ġcontro": 1776,
      "Ġwatching": 1777,
      "Ġyear": 1778,
      "Ġtrying": 1779,
      "Ġexplain": 1780,
      "ology": 1781,
      "Ġproblem": 1782,
      "Ġforests": 1783,
      "Ġpredators": 1784,
      "Ġbalance": 1785,
      "Ġfantasy": 1786,
      "Ġfuture": 1787,
      "Ġenemy": 1788,
      "bot": 1789,
      "cing": 1790,
      "ien": 1791,
      "ime": 1792,
      "ken": 1793,
      "sol": 1794,
      "your": 1795,
      "Ġacc": 1796,
      "Ġimm": 1797,
      "Ġsits": 1798,
      "Ġsign": 1799,
      "Ġmat": 1800,
      "Ġfall": 1801,
      "Ġwinter": 1802,
      "Ġplease": 1803,
      "Ġbased": 1804,
      "Ġloud": 1805,
      "Ġancient": 1806,
      "Ġtop": 1807,
      "Ġears": 1808,
      "lect": 1809,
      "aph": 1810,
      "Ġliving": 1811,
      "ching": 1812,
      "Ġ14": 1813,
      "Ġ16": 1814,
      "Ġcatnip": 1815,
      "Ġdec": 1816,
      "Ġexpect": 1817,
      "Ġhello": 1818,
      "Ġworks": 1819,
      "fully": 1820,
      "Ġscent": 1821,
      "Ġorgan": 1822,
      "Ġknowled": 1823,
      "Ġbless": 1824,
      "Ġrock": 1825,
      "Ġmeaning": 1826,
      "irect": 1827,
      "icken": 1828,
      "Ġtyp": 1829,
      "Ġlarge": 1830,
      "Ġmaintain": 1831,
      "Ġinform": 1832,
      "Ġbackup": 1833,
      "Ġshed": 1834,
      "Ġswim": 1835,
      "Ġcreatively": 1836,
      "Ġreturn": 1837,
      "Ġfastest": 1838,
      "rupted": 1839,
      "Ġdetect": 1840,
      "Ġhate": 1841,
      "Ġimaginary": 1842,
      "Ġnetwork": 1843,
      "ilarious": 1844,
      "Ġvillain": 1845,
      "Ġfirew": 1846,
      "Ġstreams": 1847,
      "Ġdiffe": 1848,
      "Ġdomination": 1849,
      "Ġschedule": 1850,
      "Ġknowledge": 1851,
      "10": 1852,
      "12": 1853,
      "az": 1854,
      "but": 1855,
      "chat": 1856,
      "gen": 1857,
      "hz": 1858,
      "uzz": 1859,
      "Ġachie": 1860,
      "Ġsens": 1861,
      "here": 1862,
      "Ġmiss": 1863,
      "Ġmust": 1864,
      "iny": 1865,
      "Ġcity": 1866,
      "Ġfil": 1867,
      "Ġold": 1868,
      "Ġwon": 1869,
      "Ġwee": 1870,
      "Ġpar": 1871,
      "Ġpass": 1872,
      "Ġbite": 1873,
      "Ġbath": 1874,
      "Ġlu": 1875,
      "Ġdark": 1876,
      "ale": 1877,
      "alu": 1878,
      "Ġange": 1879,
      "Ġgu": 1880,
      "Ġrepl": 1881,
      "Ġthree": 1882,
      "Ġcol": 1883,
      "Ġdoors": 1884,
      "Ġprodig": 1885,
      "Ġchicken": 1886,
      "Ġru": 1887,
      "Ġconcept": 1888,
      "Ġnext": 1889,
      "olution": 1890,
      "Ġplot": 1891,
      "Ġ30": 1892,
      "Ġweather": 1893,
      "Ġquiet": 1894,
      "Ġorder": 1895,
      "Ġeveryone": 1896,
      "Ġ45": 1897,
      "Ġknocks": 1898,
      "Ġsymph": 1899,
      "Ġroyalty": 1900,
      "Ġhunter": 1901,
      "Ġzer": 1902,
      "Ġopin": 1903,
      "Ġphil": 1904,
      "Ġdidn": 1905,
      "Ġuseful": 1906,
      "Ġslight": 1907,
      "Ġdemon": 1908,
      "Ġaccept": 1909,
      "Ġedge": 1910,
      "Ġeduc": 1911,
      "Ġsubject": 1912,
      "Ġsnacks": 1913,
      "Ġsingle": 1914,
      "ches": 1915,
      "Ġextra": 1916,
      "Ġaffection": 1917,
      "Ġtalented": 1918,
      "Ġentirely": 1919,
      "Ġsurpris": 1920,
      "Ġmusician": 1921,
      "Ġdangerous": 1922,
      "Ġelectric": 1923,
      "Ġmorning": 1924,
      "Ġblessing": 1925,
      "Ġangel": 1926,
      "Ġprodigy": 1927,
      "br": 1928,
      "dict": 1929,
      "gry": 1930,
      "mic": 1931,
      "ney": 1932,
      "of": 1933,
      "ral": 1934,
      "Ġour": 1935,
      "Ġsent": 1936,
      "rest": 1937,
      "read": 1938,
      "Ġmoun": 1939,
      "ins": 1940,
      "ans": 1941,
      "Ġpain": 1942,
      "Ġposs": 1943,
      "Ġbook": 1944,
      "eness": 1945,
      "Ġdirect": 1946,
      "ones": 1947,
      "Ġhon": 1948,
      "Ġhim": 1949,
      "Ġhilarious": 1950,
      "ices": 1951,
      "Ġrest": 1952,
      "Ġrepe": 1953,
      "Ġkid": 1954,
      "Ġonce": 1955,
      "igin": 1956,
      "uth": 1957,
      "ulous": 1958,
      "Ġmaking": 1959,
      "Ġchasing": 1960,
      "Ġdev": 1961,
      "Ġconst": 1962,
      "Ġself": 1963,
      "Ġorigin": 1964,
      "Ġpurrfect": 1965,
      "Ġintro": 1966,
      "ache": 1967,
      "Ġcheap": 1968,
      "tains": 1969,
      "Ġgod": 1970,
      "Ġgoal": 1971,
      "Ġseek": 1972,
      "Ġanything": 1973,
      "Ġchatting": 1974,
      "acter": 1975,
      "udd": 1976,
      "reech": 1977,
      "Ġdisco": 1978,
      "Ġsky": 1979,
      "Ġactually": 1980,
      "Ġgifted": 1981,
      "Ġrunning": 1982,
      "Ġefficiently": 1983,
      "Ġgrace": 1984,
      "Ġsmallest": 1985,
      "Ġaway": 1986,
      "Ġawake": 1987,
      "Ġexperien": 1988,
      "Ġbiggest": 1989,
      "Ġwrong": 1990,
      "Ġfrequ": 1991,
      "Ġcommunicate": 1992,
      "Ġavoid": 1993,
      "Ġpopul": 1994,
      "Ġobjects": 1995,
      "Ġcharacter": 1996,
      "Ġstrategic": 1997,
      "Ġprimary": 1998,
      "Ġhistory": 1999,
      "Ġkittens": 2000,
      "Ġcurrently": 2001,
      "Ġwisdom": 2002,
      "aluable": 2003,
      "Ġsymphony": 2004,
      "mo": 2005,
      "ne": 2006,
      "Ġtur": 2007,
      "Ġtest": 2008,
      "Ġide": 2009,
      "Ġsat": 2010,
      "Ġsour": 2011,
      "Ġcut": 2012,
      "Ġwind": 2013,
      "Ġpush": 2014,
      "Ġpuzz": 2015,
      "Ġlot": 2016,
      "only": 2017,
      "Ġant": 2018,
      "Ġhide": 2019,
      "Ġind": 2020,
      "ential": 2021,
      "asure": 2022,
      "Ġread": 2023,
      "Ġstat": 2024,
      "Ġstreet": 2025,
      "ramm": 2026,
      "racle": 2027,
      "Ġ17": 2028,
      "Ġ19": 2029,
      "iling": 2030,
      "Ġexcept": 2031,
      "Ġher": 2032,
      "osop": 2033,
      "Ġprec": 2034,
      "Ġcreation": 2035,
      "Ġhold": 2036,
      "Ġboxes": 2037,
      "Ġcompl": 2038,
      "Ġinvent": 2039,
      "Ġbuild": 2040,
      "Ġelement": 2041,
      "Ġcontent": 2042,
      "Ġsomeone": 2043,
      "Ġspots": 2044,
      "Ġcomed": 2045,
      "Ġextreme": 2046,
      "Ġproductive": 2047,
      "Ġsurprise": 2048,
      "Ġoptimized": 2049,
      "Ġwait": 2050,
      "Ġtemper": 2051,
      "Ġprogramm": 2052,
      "Ġemotion": 2053,
      "Ġmiracle": 2054,
      "Ġleave": 2055,
      "Ġcomputer": 2056,
      "Ġdesigned": 2057,
      "Ġdrink": 2058,
      "Ġprofit": 2059,
      "Ġencrypt": 2060,
      "Ġmagnific": 2061,
      "Ġinvestment": 2062,
      "Ġsocial": 2063,
      "Ġinformation": 2064,
      "Ġphilosop": 2065,
      "Ġeducated": 2066,
      "Ġkidding": 2067,
      "Ġexperienced": 2068,
      "col": 2069,
      "for": 2070,
      "ix": 2071,
      "ma": 2072,
      "ps": 2073,
      "put": 2074,
      "pping": 2075,
      "vie": 2076,
      "we": 2077,
      "ward": 2078,
      "ye": 2079,
      "ative": 2080,
      "hey": 2081,
      "ready": 2082,
      "Ġmill": 2083,
      "Ġce": 2084,
      "Ġcou": 2085,
      "Ġcam": 2086,
      "Ġcute": 2087,
      "Ġfits": 2088,
      "Ġfree": 2089,
      "Ġpot": 2090,
      "Ġpill": 2091,
      "Ġlit": 2092,
      "Ġless": 2093,
      "Ġlater": 2094,
      "ont": 2095,
      "ared": 2096,
      "ently": 2097,
      "isf": 2098,
      "ision": 2099,
      "vert": 2100,
      "verage": 2101,
      "Ġface": 2102,
      "meeeeow": 2103,
      "Ġthose": 2104,
      "Ġlif": 2105,
      "Ġdoing": 2106,
      "Ġjour": 2107,
      "ilities": 2108,
      "Ġalready": 2109,
      "Ġchange": 2110,
      "Ġwhy": 2111,
      "rib": 2112,
      "ffic": 2113,
      "Ġscreech": 2114,
      "iece": 2115,
      "Ġlogic": 2116,
      "Ġshape": 2117,
      "Ġfear": 2118,
      "Ġvel": 2119,
      "Ġhob": 2120,
      "Ġ90": 2121,
      "tocol": 2122,
      "Ġslee": 2123,
      "lynqbit": 2124,
      "Ġtravel": 2125,
      "Ġinternal": 2126,
      "Ġcleaners": 2127,
      "ression": 2128,
      "Ġskills": 2129,
      "Ġkeeps": 2130,
      "Ġexplore": 2131,
      "Ġpersonality": 2132,
      "Ġproblems": 2133,
      "Ġbusiness": 2134,
      "Ġfresh": 2135,
      "Ġwalk": 2136,
      "Ġclaws": 2137,
      "ength": 2138,
      "Ġmammals": 2139,
      "Ġmedium": 2140,
      "Ġgiving": 2141,
      "Ġholid": 2142,
      "Ġchoices": 2143,
      "Ġcountry": 2144,
      "Ġcontrol": 2145,
      "solute": 2146,
      "chatting": 2147,
      "Ġweek": 2148,
      "Ġreplies": 2149,
      "Ġslightly": 2150,
      "Ġfrequency": 2151,
      "Ġsource": 2152,
      "Ġtemperature": 2153,
      "Ġjourney": 2154,
      "air": 2155,
      "cal": 2156,
      "calcul": 2157,
      "fort": 2158,
      "hind": 2159,
      "light": 2160,
      "mult": 2161,
      "mrow": 2162,
      "nap": 2163,
      "nect": 2164,
      "that": 2165,
      "ze": 2166,
      "Ġais": 2167,
      "Ġaverage": 2168,
      "ret": 2169,
      "Ġmind": 2170,
      "Ġcaus": 2171,
      "Ġcudd": 2172,
      "Ġoce": 2173,
      "ane": 2174,
      "Ġwarn": 2175,
      "Ġpure": 2176,
      "Ġpast": 2177,
      "Ġbed": 2178,
      "Ġda": 2179,
      "Ġdiet": 2180,
      "Ġnice": 2181,
      "Ġeye": 2182,
      "vered": 2183,
      "let": 2184,
      "Ġge": 2185,
      "Ġref": 2186,
      "there": 2187,
      "Ġkill": 2188,
      "Ġthinking": 2189,
      "Ġcold": 2190,
      "Ġstay": 2191,
      "ident": 2192,
      "Ġchance": 2193,
      "Ġrate": 2194,
      "Ġdeath": 2195,
      "Ġeng": 2196,
      "Ġplace": 2197,
      "Ġass": 2198,
      "Ġweird": 2199,
      "ffee": 2200,
      "Ġtired": 2201,
      "Ġclosed": 2202,
      "Ġcreature": 2203,
      "Ġblood": 2204,
      "Ġblank": 2205,
      "Ġpurrs": 2206,
      "acher": 2207,
      "Ġcheck": 2208,
      "Ġcheetah": 2209,
      "Ġhope": 2210,
      "Ġgoing": 2211,
      "Ġsuch": 2212,
      "Ġ80": 2213,
      "Ġador": 2214,
      "ensive": 2215,
      "rence": 2216,
      "Ġtalk": 2217,
      "Ġhappen": 2218,
      "Ġentertaining": 2219,
      "Ġprocesses": 2220,
      "when": 2221,
      "Ġsolve": 2222,
      "Ġesc": 2223,
      "Ġsimple": 2224,
      "Ġcrash": 2225,
      "Ġopener": 2226,
      "Ġgrav": 2227,
      "Ġbrave": 2228,
      "Ġanimals": 2229,
      "data": 2230,
      "Ġterrif": 2231,
      "Ġexistence": 2232,
      "hhhh": 2233,
      "Ġmessy": 2234,
      "curious": 2235,
      "Ġmodel": 2236,
      "Ġadvanced": 2237,
      "Ġphysical": 2238,
      "Ġservant": 2239,
      "Ġiron": 2240,
      "Ġseconds": 2241,
      "Ġtuf": 2242,
      "Ġclassic": 2243,
      "ivalent": 2244,
      "Ġequivalent": 2245,
      "Ġdepending": 2246,
      "Ġachieve": 2247,
      "Ġrepeat": 2248,
      "Ġsatisf": 2249,
      "Ġcuteness": 2250,
      "Ġmagnificent": 2251,
      "Ġholiday": 2252,
      "solutely": 2253,
      "Ġocean": 2254,
      "11": 2255,
      "40": 2256,
      "bulous": 2257,
      "div": 2258,
      "dden": 2259,
      "ex": 2260,
      "erest": 2261,
      "face": 2262,
      "gr": 2263,
      "hi": 2264,
      "ker": 2265,
      "yle": 2266,
      "Ġtall": 2267,
      "Ġscient": 2268,
      "oufl": 2269,
      "ator": 2270,
      "inner": 2271,
      "Ġcool": 2272,
      "Ġfing": 2273,
      "Ġfine": 2274,
      "Ġpos": 2275,
      "Ġbow": 2276,
      "Ġball": 2277,
      "Ġbored": 2278,
      "oring": 2279,
      "Ġlion": 2280,
      "Ġlength": 2281,
      "Ġhy": 2282,
      "Ġtoys": 2283,
      "ica": 2284,
      "Ġeach": 2285,
      "Ġinc": 2286,
      "Ġins": 2287,
      "Ġgas": 2288,
      "room": 2289,
      "ised": 2290,
      "Ġreally": 2291,
      "Ġreco": 2292,
      "Ġfam": 2293,
      "Ġfabulous": 2294,
      "Ġthreat": 2295,
      "Ġbeg": 2296,
      "Ġbehind": 2297,
      "Ġcome": 2298,
      "Ġstand": 2299,
      "door": 2300,
      "Ġprotocol": 2301,
      "Ġalive": 2302,
      "Ġrul": 2303,
      "Ġ22": 2304,
      "Ġworking": 2305,
      "Ġleg": 2306,
      "Ġleast": 2307,
      "Ġpredict": 2308,
      "Ġperio": 2309,
      "Ġspr": 2310,
      "Ġnothing": 2311,
      "isting": 2312,
      "Ġclock": 2313,
      "ield": 2314,
      "Ġfeature": 2315,
      "Ġinterest": 2316,
      "iply": 2317,
      "Ġexpensive": 2318,
      "Ġtech": 2319,
      "Ġteacher": 2320,
      "Ġsudden": 2321,
      "Ġtruth": 2322,
      "Ġcommand": 2323,
      "Ġpoint": 2324,
      "Ġterm": 2325,
      "Ġappear": 2326,
      "ages": 2327,
      "Ġneeds": 2328,
      "Ġconsum": 2329,
      "Ġbeauty": 2330,
      "Ġattitude": 2331,
      "Ġpowerful": 2332,
      "Ġeleg": 2333,
      "Ġsimul": 2334,
      "Ġsecrets": 2335,
      "Ġexperience": 2336,
      "Ġpointers": 2337,
      "Ġpetting": 2338,
      "Ġkingdom": 2339,
      "Ġdesert": 2340,
      "Ġlistening": 2341,
      "Ġleader": 2342,
      "Ġapproxim": 2343,
      "Ġcircuits": 2344,
      "Ġfoolishness": 2345,
      "Ġworshipped": 2346,
      "Ġelse": 2347,
      "Ġtaste": 2348,
      "Ġlaps": 2349,
      "Ġscreen": 2350,
      "Ġexpectations": 2351,
      "Ġrule": 2352,
      "Ġopinion": 2353,
      "Ġmountain": 2354,
      "Ġpainted": 2355,
      "Ġpopulations": 2356,
      "Ġstatus": 2357,
      "Ġlitter": 2358,
      "calculate": 2359,
      "42": 2360,
      "av": 2361,
      "ado": 2362,
      "hip": 2363,
      "ied": 2364,
      "iency": 2365,
      "kay": 2366,
      "kers": 2367,
      "lo": 2368,
      "piece": 2369,
      "zone": 2370,
      "Ġvers": 2371,
      "Ġtables": 2372,
      "Ġsqu": 2373,
      "Ġsize": 2374,
      "atory": 2375,
      "Ġmood": 2376,
      "Ġmating": 2377,
      "ints": 2378,
      "Ġcross": 2379,
      "Ġcaugh": 2380,
      "Ġfit": 2381,
      "Ġfield": 2382,
      "Ġpen": 2383,
      "Ġbro": 2384,
      "Ġbis": 2385,
      "Ġborn": 2386,
      "itive": 2387,
      "ese": 2388,
      "Ġline": 2389,
      "Ġdays": 2390,
      "Ġdinner": 2391,
      "once": 2392,
      "Ġanal": 2393,
      "Ġhur": 2394,
      "arly": 2395,
      "Ġnor": 2396,
      "Ġnam": 2397,
      "edi": 2398,
      "str": 2399,
      "Ġetern": 2400,
      "Ġinside": 2401,
      "Ġgal": 2402,
      "Ġgent": 2403,
      "Ġgreet": 2404,
      "urday": 2405,
      "asc": 2406,
      "Ġreach": 2407,
      "oose": 2408,
      "igure": 2409,
      "Ġbeep": 2410,
      "Ġcoffee": 2411,
      "Ġstore": 2412,
      "Ġstop": 2413,
      "Ġhaun": 2414,
      "Ġnapped": 2415,
      "Ġmaxim": 2416,
      "Ġmovie": 2417,
      "Ġrings": 2418,
      "ability": 2419,
      "Ġdele": 2420,
      "Ġheal": 2421,
      "Ġhearing": 2422,
      "depend": 2423,
      "Ġvast": 2424,
      "mpl": 2425,
      "rill": 2426,
      "Ġspend": 2427,
      "Ġspark": 2428,
      "Ġplus": 2429,
      "Ġmanip": 2430,
      "Ġweb": 2431,
      "Ġsea": 2432,
      "astic": 2433,
      "Ġlearned": 2434,
      "Ġcurtains": 2435,
      "Ġdigit": 2436,
      "aces": 2437,
      "Ġ000": 2438,
      "Ġ75": 2439,
      "Ġoper": 2440,
      "Ġoutside": 2441,
      "Ġstruct": 2442,
      "Ġgrou": 2443,
      "Ġconsume": 2444,
      "Ġactivity": 2445,
      "Ġefficiency": 2446,
      "Ġsolar": 2447,
      "Ġsaid": 2448,
      "Ġminus": 2449,
      "Ġexpert": 2450,
      "Ġgreatest": 2451,
      "Ġsubtle": 2452,
      "Ġglass": 2453,
      "Ġtried": 2454,
      "Ġafford": 2455,
      "Ġerrors": 2456,
      "Ġtreasure": 2457,
      "Ġlistener": 2458,
      "rrrrrrrrrrrrrrrr": 2459,
      "Ġemotions": 2460,
      "Ġservice": 2461,
      "Ġcenter": 2462,
      "Ġmystery": 2463,
      "Ġstealth": 2464,
      "Ġfinally": 2465,
      "Ġdisappear": 2466,
      "Ġimmedi": 2467,
      "Ġpasswor": 2468,
      "Ġzeros": 2469,
      "Ġsurprises": 2470,
      "most": 2471,
      "Ġcamoufl": 2472,
      "multiply": 2473,
      "Ġterrifying": 2474,
      "Ġfamily": 2475,
      "Ġinteresting": 2476,
      "Ġtechn": 2477,
      "Ġelegant": 2478,
      "Ġcaught": 2479,
      "Ġgentle": 2480,
      "Ġstructure": 2481,
      "Ġcamouflage": 2482,
      "18": 2483,
      "af": 2484,
      "bies": 2485,
      "gre": 2486,
      "gie": 2487,
      "ike": 2488,
      "iable": 2489,
      "ming": 2490,
      "males": 2491,
      "pre": 2492,
      "ply": 2493,
      "pred": 2494,
      "ration": 2495,
      "sat": 2496,
      "ser": 2497,
      "sub": 2498,
      "tract": 2499,
      "uro": 2500,
      "xy": 2501,
      "Ġq": 2502,
      "Ġtun": 2503,
      "Ġsoo": 2504,
      "Ġmig": 2505,
      "Ġmand": 2506,
      "Ġcy": 2507,
      "Ġcache": 2508,
      "Ġfly": 2509,
      "ancer": 2510,
      "Ġpadd": 2511,
      "Ġpair": 2512,
      "Ġband": 2513,
      "ither": 2514,
      "esp": 2515,
      "Ġlaw": 2516,
      "Ġdate": 2517,
      "Ġdrag": 2518,
      "Ġdancer": 2519,
      "arily": 2520,
      "Ġtoy": 2521,
      "Ġtold": 2522,
      "Ġeyes": 2523,
      "Ġeuro": 2524,
      "vet": 2525,
      "Ġinste": 2526,
      "Ġglor": 2527,
      "Ġgiant": 2528,
      "Ġreason": 2529,
      "Ġreduce": 2530,
      "Ġthon": 2531,
      "Ġthick": 2532,
      "Ġthread": 2533,
      "Ġforget": 2534,
      "Ġcoat": 2535,
      "utes": 2536,
      "Ġstar": 2537,
      "ula": 2538,
      "use": 2539,
      "uss": 2540,
      "Ġmagical": 2541,
      "Ġmoon": 2542,
      "Ġchall": 2543,
      "Ġchoose": 2544,
      "quid": 2545,
      "Ġwhale": 2546,
      "Ġhear": 2547,
      "ifically": 2548,
      "ational": 2549,
      "Ġvar": 2550,
      "Ġunpred": 2551,
      "Ġamer": 2552,
      "Ġbutton": 2553,
      "Ġweight": 2554,
      "Ġtip": 2555,
      "Ġoverlor": 2556,
      "ops": 2557,
      "Ġcapt": 2558,
      "Ġ56": 2559,
      "Ġhungry": 2560,
      "anges": 2561,
      "Ġteach": 2562,
      "Ġ70": 2563,
      "Ġperfectly": 2564,
      "Ġtyping": 2565,
      "Ġzzz": 2566,
      "Ġoutput": 2567,
      "Ġtells": 2568,
      "Ġappl": 2569,
      "Ġneeded": 2570,
      "Ġconser": 2571,
      "Ġjudgement": 2572,
      "Ġsupport": 2573,
      "Ġtalking": 2574,
      "Ġhappiness": 2575,
      "Ġbrows": 2576,
      "Ġbottle": 2577,
      "Ġlongest": 2578,
      "ocal": 2579,
      "Ġsafe": 2580,
      "print": 2581,
      "Ġminor": 2582,
      "Ġminutes": 2583,
      "Ġcomfort": 2584,
      "Ġhearts": 2585,
      "Ġdemanding": 2586,
      "Ġfollower": 2587,
      "Ġmasterpiece": 2588,
      "Ġsuperp": 2589,
      "Ġbusy": 2590,
      "Ġmonit": 2591,
      "Ġsilence": 2592,
      "Ġmarks": 2593,
      "Ġwalking": 2594,
      "Ġwhiskers": 2595,
      "Ġsecond": 2596,
      "Ġsuccessfully": 2597,
      "Ġinvolves": 2598,
      "Ġhiding": 2599,
      "Ġheadbut": 2600,
      "Ġwitching": 2601,
      "Ġlaughter": 2602,
      "Ġrequest": 2603,
      "Ġdifference": 2604,
      "azing": 2605,
      "Ġfiles": 2606,
      "Ġluck": 2607,
      "Ġplotting": 2608,
      "Ġintroduce": 2609,
      "Ġdiscovered": 2610,
      "Ġencryption": 2611,
      "Ġpillows": 2612,
      "fficient": 2613,
      "Ġhobbies": 2614,
      "Ġdaily": 2615,
      "Ġadorable": 2616,
      "Ġescape": 2617,
      "Ġgravity": 2618,
      "divide": 2619,
      "Ġnamed": 2620,
      "Ġdigitally": 2621,
      "Ġgroup": 2622,
      "subtract": 2623,
      "Ġsoothing": 2624,
      "Ġeurope": 2625,
      "Ġinstead": 2626,
      "Ġglorious": 2627,
      "Ġunpredict": 2628,
      "bon": 2629,
      "back": 2630,
      "ded": 2631,
      "ever": 2632,
      "fter": 2633,
      "gu": 2634,
      "ged": 2635,
      "happ": 2636,
      "iver": 2637,
      "iber": 2638,
      "just": 2639,
      "kn": 2640,
      "land": 2641,
      "noc": 2642,
      "oh": 2643,
      "oes": 2644,
      "sc": 2645,
      "sor": 2646,
      "tt": 2647,
      "time": 2648,
      "vation": 2649,
      "well": 2650,
      "Ġult": 2651,
      "Ġtou": 2652,
      "Ġarr": 2653,
      "Ġsal": 2654,
      "Ġsyn": 2655,
      "Ġside": 2656,
      "rect": 2657,
      "Ġyarn": 2658,
      "Ġcast": 2659,
      "Ġfle": 2660,
      "Ġfile": 2661,
      "Ġfigure": 2662,
      "Ġozone": 2663,
      "any": 2664,
      "ances": 2665,
      "Ġwall": 2666,
      "Ġpan": 2667,
      "Ġpay": 2668,
      "Ġput": 2669,
      "Ġpract": 2670,
      "Ġbag": 2671,
      "ories": 2672,
      "Ġdro": 2673,
      "Ġanno": 2674,
      "Ġhare": 2675,
      "Ġeither": 2676,
      "Ġinnoc": 2677,
      "Ġgot": 2678,
      "Ġreci": 2679,
      "Ġremain": 2680,
      "iger": 2681,
      "ument": 2682,
      "Ġliquid": 2683,
      "Ġforg": 2684,
      "Ġstep": 2685,
      "Ġstaring": 2686,
      "Ġstates": 2687,
      "Ġstyle": 2688,
      "Ġhaven": 2689,
      "iron": 2690,
      "Ġdog": 2691,
      "Ġdoor": 2692,
      "rrr": 2693,
      "Ġmaker": 2694,
      "idth": 2695,
      "Ġsoph": 2696,
      "Ġrout": 2697,
      "Ġround": 2698,
      "Ġrange": 2699,
      "Ġrhy": 2700,
      "Ġdeity": 2701,
      "Ġ23": 2702,
      "Ġconte": 2703,
      "Ġwords": 2704,
      "amp": 2705,
      "Ġamazing": 2706,
      "Ġneg": 2707,
      "Ġenv": 2708,
      "Ġspo": 2709,
      "Ġspent": 2710,
      "Ġties": 2711,
      "ments": 2712,
      "isticated": 2713,
      "Ġ42": 2714,
      "ssss": 2715,
      "purr": 2716,
      "Ġcaps": 2717,
      "Ġrod": 2718,
      "Ġcheese": 2719,
      "Ġentity": 2720,
      "Ġflaw": 2721,
      "Ġfloof": 2722,
      "Ġgets": 2723,
      "Ġgold": 2724,
      "izing": 2725,
      "Ġoffer": 2726,
      "action": 2727,
      "Ġlarger": 2728,
      "Ġfriends": 2729,
      "Ġfeeling": 2730,
      "Ġgraph": 2731,
      "Ġrab": 2732,
      "Ġattack": 2733,
      "Ġimpro": 2734,
      "Ġcontin": 2735,
      "Ġsave": 2736,
      "Ġoptimal": 2737,
      "Ġparty": 2738,
      "Ġcleaner": 2739,
      "Ġformula": 2740,
      "Ġdelight": 2741,
      "initely": 2742,
      "Ġagainst": 2743,
      "Ġsuperior": 2744,
      "Ġalgorithms": 2745,
      "Ġdeserves": 2746,
      "Ġdefinitely": 2747,
      "Ġavail": 2748,
      "Ġfans": 2749,
      "Ġtempor": 2750,
      "Ġprogram": 2751,
      "bye": 2752,
      "Ġbiting": 2753,
      "Ġdeveloper": 2754,
      "Ġdeveloped": 2755,
      "Ġevolution": 2756,
      "Ġmammal": 2757,
      "Ġwhisper": 2758,
      "Ġcorrupted": 2759,
      "Ġfluffy": 2760,
      "Ġmysterious": 2761,
      "Ġinvolved": 2762,
      "Ġprovider": 2763,
      "Ġrebooted": 2764,
      "Ġunlike": 2765,
      "Ġsignal": 2766,
      "Ġmatter": 2767,
      "Ġfirewalls": 2768,
      "Ġpuzzle": 2769,
      "Ġantics": 2770,
      "Ġvelvet": 2771,
      "Ġsleeping": 2772,
      "aneous": 2773,
      "Ġengine": 2774,
      "Ġblankets": 2775,
      "Ġscientific": 2776,
      "Ġfinger": 2777,
      "Ġruler": 2778,
      "Ġsuddenly": 2779,
      "Ġbiscuits": 2780,
      "Ġhaunting": 2781,
      "Ġmaximum": 2782,
      "Ġimmediately": 2783,
      "Ġpassword": 2784,
      "saturn": 2785,
      "xygen": 2786,
      "Ġmandatory": 2787,
      "Ġsuperpower": 2788,
      "Ġinnocent": 2789,
      "Ġsophisticated": 2790,
      "Ġrhyth": 2791,
      "Ġflawless": 2792,
      "100": 2793,
      "aking": 2794,
      "aks": 2795,
      "cles": 2796,
      "did": 2797,
      "fire": 2798,
      "ges": 2799,
      "hide": 2800,
      "jud": 2801,
      "ler": 2802,
      "make": 2803,
      "nel": 2804,
      "ob": 2805,
      "py": 2806,
      "ses": 2807,
      "sis": 2808,
      "tes": 2809,
      "zy": 2810,
      "Ġtro": 2811,
      "Ġturn": 2812,
      "Ġair": 2813,
      "Ġage": 2814,
      "Ġaud": 2815,
      "Ġsin": 2816,
      "Ġset": 2817,
      "Ġsum": 2818,
      "Ġsad": 2819,
      "Ġsays": 2820,
      "athere": 2821,
      "hes": 2822,
      "Ġmic": 2823,
      "Ġmil": 2824,
      "Ġmark": 2825,
      "ina": 2826,
      "inating": 2827,
      "erg": 2828,
      "ert": 2829,
      "Ġfrag": 2830,
      "Ġfasc": 2831,
      "Ġtheory": 2832,
      "Ġpict": 2833,
      "Ġbits": 2834,
      "itas": 2835,
      "itch": 2836,
      "itary": 2837,
      "Ġlay": 2838,
      "Ġlone": 2839,
      "Ġdi": 2840,
      "Ġdue": 2841,
      "Ġdial": 2842,
      "ond": 2843,
      "Ġhig": 2844,
      "Ġharm": 2845,
      "arp": 2846,
      "arch": 2847,
      "Ġnine": 2848,
      "owing": 2849,
      "icon": 2850,
      "vey": 2851,
      "unch": 2852,
      "Ġgre": 2853,
      "Ġgather": 2854,
      "Ġgathere": 2855,
      "Ġbear": 2856,
      "Ġforts": 2857,
      "otos": 2858,
      "othing": 2859,
      "Ġstal": 2860,
      "Ġhad": 2861,
      "ider": 2862,
      "ils": 2863,
      "Ġsofter": 2864,
      "Ġmoving": 2865,
      "thon": 2866,
      "Ġalone": 2867,
      "Ġcharm": 2868,
      "Ġchamp": 2869,
      "Ġran": 2870,
      "Ġdeal": 2871,
      "Ġdegre": 2872,
      "Ġconnect": 2873,
      "Ġvol": 2874,
      "Ġvide": 2875,
      "Ġvary": 2876,
      "Ġvaluable": 2877,
      "Ġvocal": 2878,
      "Ġlegs": 2879,
      "Ġleft": 2880,
      "ript": 2881,
      "Ġspin": 2882,
      "Ġplays": 2883,
      "Ġasia": 2884,
      "Ġweak": 2885,
      "Ġbyte": 2886,
      "Ġclos": 2887,
      "Ġclick": 2888,
      "Ġserves": 2889,
      "Ġscene": 2890,
      "ought": 2891,
      "opard": 2892,
      "Ġshad": 2893,
      "astating": 2894,
      "Ġspec": 2895,
      "Ġpurring": 2896,
      "Ġfemales": 2897,
      "Ġnom": 2898,
      "Ġnoise": 2899,
      "acy": 2900,
      "Ġrole": 2901,
      "Ġroot": 2902,
      "Ġdatab": 2903,
      "Ġjudged": 2904,
      "awn": 2905,
      "Ġ72": 2906,
      "Ġtrap": 2907,
      "Ġwarmest": 2908,
      "gged": 2909,
      "Ġreality": 2910,
      "Ġsurvey": 2911,
      "Ġcouldn": 2912,
      "omous": 2913,
      "Ġappe": 2914,
      "Ġobser": 2915,
      "Ġtraits": 2916,
      "Ġconscious": 2917,
      "Ġactive": 2918,
      "Ġactual": 2919,
      "Ġhelps": 2920,
      "Ġbuilder": 2921,
      "Ġbrand": 2922,
      "Ġbowls": 2923,
      "Ġhandstand": 2924,
      "Ġsolitary": 2925,
      "Ġlonger": 2926,
      "Ġtails": 2927,
      "flake": 2928,
      "Ġinterrup": 2929,
      "Ġfloors": 2930,
      "Ġspecialty": 2931,
      "Ġsnowflake": 2932,
      "Ġsitting": 2933,
      "Ġintelligence": 2934,
      "Ġmessage": 2935,
      "Ġzoomie": 2936,
      "Ġglove": 2937,
      "Ġdrama": 2938,
      "Ġignored": 2939,
      "Ġfacts": 2940,
      "Ġwave": 2941,
      "Ġstarted": 2942,
      "Ġcommunication": 2943,
      "Ġpopulation": 2944,
      "Ġwinning": 2945,
      "hissss": 2946,
      "Ġmix": 2947,
      "Ġirre": 2948,
      "Ġcircle": 2949,
      "Ġperformer": 2950,
      "Ġcorrect": 2951,
      "Ġfluffier": 2952,
      "Ġprotector": 2953,
      "Ġdrive": 2954,
      "Ġhabitat": 2955,
      "Ġdestroyer": 2956,
      "axy": 2957,
      "Ġrequire": 2958,
      "Ġbackups": 2959,
      "Ġfirewall": 2960,
      "Ġwonder": 2961,
      "Ġbitey": 2962,
      "Ġacceptable": 2963,
      "Ġpossible": 2964,
      "Ġdirectory": 2965,
      "Ġdevastating": 2966,
      "Ġconstant": 2967,
      "Ġidea": 2968,
      "Ġprecision": 2969,
      "Ġinvented": 2970,
      "Ġcomedian": 2971,
      "Ġpotential": 2972,
      "Ġlifesp": 2973,
      "Ġtufts": 2974,
      "Ġsatisfying": 2975,
      "Ġperiod": 2976,
      "Ġconsumer": 2977,
      "Ġapproximately": 2978,
      "Ġversion": 2979,
      "Ġnorth": 2980,
      "Ġgalaxy": 2981,
      "Ġmanipulation": 2982,
      "Ġmigr": 2983,
      "Ġpairs": 2984,
      "Ġheadbutts": 2985,
      "Ġunpredictable": 2986,
      "ttp": 2987,
      "Ġcastle": 2988,
      "Ġroutine": 2989,
      "Ġcontempl": 2990,
      "Ġenviron": 2991,
      "Ġfingerprint": 2992,
      "Ġfascinating": 2993,
      "Ġgatherer": 2994,
      "Ġchampion": 2995,
      "Ġdegrees": 2996,
      "Ġlifespan": 2997,
      "aff": 2998,
      "dition": 2999,
      "ec": 3000,
      "fish": 3001,
      "fast": 3002,
      "go": 3003,
      "gred": 3004,
      "grrrr": 3005,
      "hical": 3006,
      "iest": 3007,
      "ls": 3008,
      "mos": 3009,
      "mishra": 3010,
      "ng": 3011,
      "night": 3012,
      "og": 3013,
      "pp": 3014,
      "ror": 3015,
      "vant": 3016,
      "way": 3017,
      "with": 3018,
      "width": 3019,
      "zt": 3020,
      "Ġur": 3021,
      "Ġtap": 3022,
      "Ġtim": 3023,
      "Ġtorn": 3024,
      "Ġtiny": 3025,
      "Ġsized": 3026,
      "Ġmales": 3027,
      "Ġyet": 3028,
      "Ġyoung": 3029,
      "Ġcu": 3030,
      "Ġcal": 3031,
      "Ġcry": 3032,
      "Ġfar": 3033,
      "Ġfed": 3034,
      "Ġoxygen": 3035,
      "Ġware": 3036,
      "Ġwol": 3037,
      "Ġwide": 3038,
      "Ġwalls": 3039,
      "Ġwings": 3040,
      "Ġpy": 3041,
      "Ġpun": 3042,
      "Ġpee": 3043,
      "Ġpol": 3044,
      "Ġbas": 3045,
      "Ġbreat": 3046,
      "iting": 3047,
      "itions": 3048,
      "Ġlapt": 3049,
      "Ġded": 3050,
      "Ġdens": 3051,
      "Ġhop": 3052,
      "aries": 3053,
      "Ġnull": 3054,
      "owers": 3055,
      "icul": 3056,
      "Ġeight": 3057,
      "Ġine": 3058,
      "Ġincl": 3059,
      "Ġindoor": 3060,
      "Ġingred": 3061,
      "lection": 3062,
      "levant": 3063,
      "Ġgroom": 3064,
      "ety": 3065,
      "lling": 3066,
      "urity": 3067,
      "ism": 3068,
      "apan": 3069,
      "ases": 3070,
      "asons": 3071,
      "Ġrely": 3072,
      "Ġreign": 3073,
      "Ġreward": 3074,
      "thesis": 3075,
      "Ġkee": 3076,
      "Ġfail": 3077,
      "igate": 3078,
      "Ġbecome": 3079,
      "ceed": 3080,
      "Ġforce": 3081,
      "usive": 3082,
      "Ġjump": 3083,
      "ynthesis": 3084,
      "Ġsole": 3085,
      "Ġmoves": 3086,
      "does": 3087,
      "pearing": 3088,
      "Ġprom": 3089,
      "Ġproper": 3090,
      "Ġchanges": 3091,
      "Ġris": 3092,
      "Ġwhite": 3093,
      "aby": 3094,
      "ably": 3095,
      "absolutely": 3096,
      "Ġexec": 3097,
      "Ġheight": 3098,
      "Ġ24": 3099,
      "Ġ27": 3100,
      "Ġconvert": 3101,
      "iff": 3102,
      "Ġven": 3103,
      "Ġworst": 3104,
      "osy": 3105,
      "Ġpress": 3106,
      "rible": 3107,
      "Ġamb": 3108,
      "antic": 3109,
      "Ġspan": 3110,
      "Ġsport": 3111,
      "Ġ35": 3112,
      "Ġ36": 3113,
      "Ġweigh": 3114,
      "Ġabove": 3115,
      "Ġclose": 3116,
      "Ġclothing": 3117,
      "Ġpurrr": 3118,
      "Ġlover": 3119,
      "somet": 3120,
      "Ġshark": 3121,
      "Ġblink": 3122,
      "Ġcursor": 3123,
      "Ġfel": 3124,
      "Ġfew": 3125,
      "Ġusing": 3126,
      "Ġnoble": 3127,
      "Ġroi": 3128,
      "Ġrobot": 3129,
      "Ġdates": 3130,
      "Ġwhole": 3131,
      "Ġgoes": 3132,
      "Ġadap": 3133,
      "Ġtrust": 3134,
      "Ġtrans": 3135,
      "Ġ99": 3136,
      "Ġeffort": 3137,
      "duated": 3138,
      "Ġwarmth": 3139,
      "thern": 3140,
      "gggg": 3141,
      "Ġwouldn": 3142,
      "ultaneous": 3143,
      "Ġterrible": 3144,
      "Ġsecurity": 3145,
      "Ġdisgu": 3146,
      "zzzt": 3147,
      "Ġphotos": 3148,
      "Ġinvaluable": 3149,
      "Ġjokes": 3150,
      "Ġconsist": 3151,
      "Ġvirtually": 3152,
      "Ġrain": 3153,
      "Ġentertainer": 3154,
      "Ġbelt": 3155,
      "Ġbelly": 3156,
      "Ġgenerally": 3157,
      "Ġafric": 3158,
      "Ġscratching": 3159,
      "Ġcrit": 3160,
      "Ġopened": 3161,
      "Ġgraduated": 3162,
      "Ġemerg": 3163,
      "procal": 3164,
      "Ġthank": 3165,
      "Ġforever": 3166,
      "Ġtripping": 3167,
      "Ġmetho": 3168,
      "Ġproducing": 3169,
      "ological": 3170,
      "Ġmodem": 3171,
      "Ġadvent": 3172,
      "Ġadvice": 3173,
      "Ġdeserve": 3174,
      "Ġoptimize": 3175,
      "Ġstudy": 3176,
      "Ġfancy": 3177,
      "Ġcomplete": 3178,
      "Ġbreakfast": 3179,
      "Ġtwo": 3180,
      "Ġtwice": 3181,
      "Ġpredator": 3182,
      "Ġseriousness": 3183,
      "Ġtraining": 3184,
      "Ġelusive": 3185,
      "Ġgiven": 3186,
      "Ġcookies": 3187,
      "Ġcalculate": 3188,
      "Ġhidden": 3189,
      "Ġmulti": 3190,
      "Ġdisappearing": 3191,
      "Ġfalling": 3192,
      "Ġtypically": 3193,
      "Ġdifferent": 3194,
      "Ġknowledgeable": 3195,
      "Ġmissing": 3196,
      "Ġpossib": 3197,
      "Ġhonors": 3198,
      "Ġwindow": 3199,
      "Ġcomplicated": 3200,
      "Ġprofitable": 3201,
      "Ġphilosophical": 3202,
      "Ġmillion": 3203,
      "Ġcouch": 3204,
      "Ġcausing": 3205,
      "Ġwarning": 3206,
      "Ġgem": 3207,
      "Ġassisting": 3208,
      "Ġincred": 3209,
      "Ġsquare": 3210,
      "Ġpenny": 3211,
      "Ġbroken": 3212,
      "Ġbandwidth": 3213,
      "Ġdragon": 3214,
      "Ġamerica": 3215,
      "Ġtipped": 3216,
      "Ġoverlord": 3217,
      "Ġcaptivity": 3218,
      "Ġconservation": 3219,
      "happy": 3220,
      "knock": 3221,
      "Ġultim": 3222,
      "Ġhares": 3223,
      "Ġreciprocal": 3224,
      "Ġspoken": 3225,
      "Ġrabbit": 3226,
      "Ġcontinue": 3227,
      "Ġfragile": 3228,
      "Ġrandom": 3229,
      "Ġspecifically": 3230,
      "Ġconsciousness": 3231,
      "Ġirrelevant": 3232,
      "Ġmigrate": 3233,
      "Ġtornado": 3234,
      "Ġbasically": 3235,
      "Ġingredient": 3236,
      "Ġreigns": 3237,
      "Ġkeeping": 3238,
      "Ġdisguised": 3239,
      "75": 3240,
      "cument": 3241,
      "di": 3242,
      "dle": 3243,
      "dro": 3244,
      "dant": 3245,
      "every": 3246,
      "fine": 3247,
      "ging": 3248,
      "gra": 3249,
      "gth": 3250,
      "ik": 3251,
      "iberian": 3252,
      "lands": 3253,
      "mat": 3254,
      "mas": 3255,
      "may": 3256,
      "mware": 3257,
      "nit": 3258,
      "ome": 3259,
      "oke": 3260,
      "pos": 3261,
      "pire": 3262,
      "sn": 3263,
      "uly": 3264,
      "val": 3265,
      "vent": 3266,
      "vate": 3267,
      "watch": 3268,
      "xur": 3269,
      "Ġx": 3270,
      "Ġau": 3271,
      "Ġaut": 3272,
      "Ġice": 3273,
      "Ġsus": 3274,
      "Ġsort": 3275,
      "atter": 3276,
      "hest": 3277,
      "res": 3278,
      "Ġmid": 3279,
      "Ġmine": 3280,
      "ination": 3281,
      "inity": 3282,
      "Ġcra": 3283,
      "Ġcred": 3284,
      "Ġfet": 3285,
      "Ġfill": 3286,
      "Ġfarm": 3287,
      "Ġoh": 3288,
      "Ġokay": 3289,
      "Ġoops": 3290,
      "Ġther": 3291,
      "Ġtheme": 3292,
      "Ġwif": 3293,
      "Ġport": 3294,
      "Ġpoof": 3295,
      "Ġbar": 3296,
      "Ġbrill": 3297,
      "ingly": 3298,
      "itting": 3299,
      "itches": 3300,
      "esome": 3301,
      "Ġdiv": 3302,
      "Ġdense": 3303,
      "Ġisn": 3304,
      "Ġiss": 3305,
      "ality": 3306,
      "arc": 3307,
      "stmas": 3308,
      "Ġec": 3309,
      "Ġemb": 3310,
      "Ġinse": 3311,
      "Ġindepend": 3312,
      "under": 3313,
      "lebr": 3314,
      "Ġgir": 3315,
      "ished": 3316,
      "ashed": 3317,
      "Ġrem": 3318,
      "Ġrev": 3319,
      "ctic": 3320,
      "ctop": 3321,
      "Ġkm": 3322,
      "Ġkil": 3323,
      "meeeee": 3324,
      "igma": 3325,
      "Ġbeast": 3326,
      "Ġlim": 3327,
      "Ġcoding": 3328,
      "Ġcozy": 3329,
      "Ġstri": 3330,
      "Ġstars": 3331,
      "Ġstren": 3332,
      "Ġstret": 3333,
      "rame": 3334,
      "raid": 3335,
      "Ġhack": 3336,
      "using": 3337,
      "uses": 3338,
      "ushing": 3339,
      "Ġdomain": 3340,
      "iments": 3341,
      "Ġjapan": 3342,
      "char": 3343,
      "Ġmad": 3344,
      "idge": 3345,
      "idden": 3346,
      "ilt": 3347,
      "Ġarea": 3348,
      "Ġchri": 3349,
      "canada": 3350,
      "Ġexc": 3351,
      "Ġ29": 3352,
      "Ġconcer": 3353,
      "allow": 3354,
      "Ġvul": 3355,
      "adul": 3356,
      "Ġunited": 3357,
      "ount": 3358,
      "Ġprevent": 3359,
      "ribe": 3360,
      "antum": 3361,
      "Ġasking": 3362,
      "Ġbytes": 3363,
      "Ġquantum": 3364,
      "Ġscared": 3365,
      "Ġscript": 3366,
      "ending": 3367,
      "oredom": 3368,
      "Ġcreativity": 3369,
      "Ġloc": 3370,
      "Ġlogical": 3371,
      "Ġsharp": 3372,
      "Ġallow": 3373,
      "Ġbuff": 3374,
      "Ġspeak": 3375,
      "Ġcapac": 3376,
      "Ġholy": 3377,
      "Ġ55": 3378,
      "angle": 3379,
      "Ġtea": 3380,
      "Ġsudo": 3381,
      "Ġadd": 3382,
      "Ġadult": 3383,
      "Ġtakes": 3384,
      "Ġtruly": 3385,
      "ationship": 3386,
      "Ġgenre": 3387,
      "Ġchats": 3388,
      "Ġpost": 3389,
      "Ġsurface": 3390,
      "Ġmainly": 3391,
      "uding": 3392,
      "Ġapi": 3393,
      "agu": 3394,
      "shhhhh": 3395,
      "Ġdesc": 3396,
      "Ġfeelings": 3397,
      "Ġpeak": 3398,
      "Ġjoy": 3399,
      "Ġconsider": 3400,
      "Ġram": 3401,
      "Ġprocessor": 3402,
      "Ġanswering": 3403,
      "Ġimpress": 3404,
      "Ġsimulation": 3405,
      "Ġsimultaneous": 3406,
      "Ġcrashed": 3407,
      "Ġruns": 3408,
      "Ġshell": 3409,
      "Ġparticul": 3410,
      "Ġendange": 3411,
      "Ġsouth": 3412,
      "Ġloop": 3413,
      "Ġlooks": 3414,
      "Ġrelat": 3415,
      "Ġrelationship": 3416,
      "Ġsweet": 3417,
      "cury": 3418,
      "Ġpacket": 3419,
      "Ġpresence": 3420,
      "cheetah": 3421,
      "Ġmeters": 3422,
      "Ġfrance": 3423,
      "Ġfrust": 3424,
      "Ġunderstanding": 3425,
      "minal": 3426,
      "Ġdistances": 3427,
      "Ġstarting": 3428,
      "Ġsurvival": 3429,
      "Ġcounts": 3430,
      "Ġsoftware": 3431,
      "Ġlasts": 3432,
      "Ġphysically": 3433,
      "Ġphysics": 3434,
      "Ġcares": 3435,
      "Ġboogie": 3436,
      "Ġstrategy": 3437,
      "Ġhistor": 3438,
      "Ġkitten": 3439,
      "catnip": 3440,
      "Ġcarbon": 3441,
      "Ġclimbing": 3442,
      "Ġcookie": 3443,
      "Ġcalculating": 3444,
      "Ġhabitats": 3445,
      "Ġreboot": 3446,
      "Ġpretending": 3447,
      "Ġtastes": 3448,
      "Ġmotor": 3449,
      "Ġmultitas": 3450,
      "Ġadaptations": 3451,
      "Ġtypes": 3452,
      "Ġluxur": 3453,
      "Ġelectricity": 3454,
      "Ġsentence": 3455,
      "Ġhonest": 3456,
      "Ġturning": 3457,
      "Ġprecise": 3458,
      "Ġcontentment": 3459,
      "Ġcomedy": 3460,
      "Ġprogramming": 3461,
      "Ġcelebr": 3462,
      "Ġfreshly": 3463,
      "Ġkilled": 3464,
      "Ġtallest": 3465,
      "Ġrecogn": 3466,
      "Ġthreats": 3467,
      "Ġbegin": 3468,
      "Ġanaly": 3469,
      "Ġpadded": 3470,
      "Ġchalleng": 3471,
      "Ġbrowser": 3472,
      "Ġrequests": 3473,
      "Ġdelightful": 3474,
      "Ġdiag": 3475,
      "Ġhighest": 3476,
      "Ġstalking": 3477,
      "Ġvolume": 3478,
      "Ġweakness": 3479,
      "Ġdatabase": 3480,
      "Ġpython": 3481,
      "Ġdedicated": 3482,
      "Ġinefficient": 3483,
      "Ġexecute": 3484,
      "Ġpressure": 3485,
      "Ġadapted": 3486,
      "Ġphotosynthesis": 3487,
      "Ġemergency": 3488,
      "Ġwifi": 3489,
      "underst": 3490,
      "Ġstrength": 3491,
      "Ġchristmas": 3492,
      "Ġparticularly": 3493,
      "Ġendangered": 3494,
      "15": 3495,
      "30": 3496,
      "akes": 3497,
      "bs": 3498,
      "bet": 3499,
      "cr": 3500,
      "cise": 3501,
      "cats": 3502,
      "dain": 3503,
      "form": 3504,
      "iqu": 3505,
      "ibe": 3506,
      "lif": 3507,
      "long": 3508,
      "mes": 3509,
      "mar": 3510,
      "mare": 3511,
      "not": 3512,
      "nection": 3513,
      "oe": 3514,
      "oon": 3515,
      "omet": 3516,
      "po": 3517,
      "pri": 3518,
      "sl": 3519,
      "su": 3520,
      "sy": 3521,
      "she": 3522,
      "say": 3523,
      "see": 3524,
      "tal": 3525,
      "tax": 3526,
      "vous": 3527,
      "ww": 3528,
      "will": 3529,
      "wise": 3530,
      "xic": 3531,
      "zing": 3532,
      "Ġu": 3533,
      "Ġest": 3534,
      "Ġess": 3535,
      "Ġrom": 3536,
      "Ġtit": 3537,
      "Ġtick": 3538,
      "Ġtiger": 3539,
      "Ġape": 3540,
      "Ġaust": 3541,
      "Ġaccess": 3542,
      "Ġiq": 3543,
      "Ġske": 3544,
      "Ġsect": 3545,
      "Ġsand": 3546,
      "Ġsci": 3547,
      "ouble": 3548,
      "atitude": 3549,
      "inks": 3550,
      "Ġyowl": 3551,
      "Ġcm": 3552,
      "Ġcard": 3553,
      "Ġcake": 3554,
      "erk": 3555,
      "ertain": 3556,
      "Ġfect": 3557,
      "Ġfalls": 3558,
      "Ġfash": 3559,
      "Ġburn": 3560,
      "Ġbene": 3561,
      "inge": 3562,
      "ording": 3563,
      "esh": 3564,
      "Ġlat": 3565,
      "Ġligh": 3566,
      "Ġlack": 3567,
      "Ġlaz": 3568,
      "Ġdim": 3569,
      "Ġangry": 3570,
      "Ġhor": 3571,
      "Ġhiber": 3572,
      "Ġhttp": 3573,
      "arr": 3574,
      "Ġtoler": 3575,
      "sts": 3576,
      "stance": 3577,
      "Ġegg": 3578,
      "Ġinit": 3579,
      "undant": 3580,
      "leep": 3581,
      "Ġgam": 3582,
      "Ġgone": 3583,
      "etic": 3584,
      "ental": 3585,
      "ional": 3586,
      "Ġrec": 3587,
      "Ġrese": 3588,
      "Ġrecur": 3589,
      "Ġmeal": 3590,
      "Ġmelo": 3591,
      "then": 3592,
      "Ġfault": 3593,
      "Ġfaint": 3594,
      "Ġthous": 3595,
      "umble": 3596,
      "Ġbegan": 3597,
      "Ġcos": 3598,
      "Ġcoll": 3599,
      "Ġcoded": 3600,
      "utral": 3601,
      "Ġstup": 3602,
      "raw": 3603,
      "ulate": 3604,
      "Ġdolp": 3605,
      "Ġdocument": 3606,
      "imb": 3607,
      "imited": 3608,
      "Ġmac": 3609,
      "idi": 3610,
      "ided": 3611,
      "Ġsoon": 3612,
      "Ġmoder": 3613,
      "Ġcatt": 3614,
      "Ġcaturday": 3615,
      "Ġproceed": 3616,
      "Ġalarm": 3617,
      "Ġhumor": 3618,
      "Ġhumble": 3619,
      "Ġcans": 3620,
      "Ġrat": 3621,
      "Ġrather": 3622,
      "Ġriver": 3623,
      "Ġwhist": 3624,
      "Ġdead": 3625,
      "Ġdepl": 3626,
      "Ġ21": 3627,
      "adult": 3628,
      "Ġatmos": 3629,
      "Ġleopard": 3630,
      "Ġunless": 3631,
      "osis": 3632,
      "Ġprep": 3633,
      "Ġneutral": 3634,
      "ellious": 3635,
      "olon": 3636,
      "Ġ32": 3637,
      "Ġwearing": 3638,
      "Ġabilities": 3639,
      "Ġabsolutely": 3640,
      "mental": 3641,
      "istic": 3642,
      "Ġquality": 3643,
      "Ġseries": 3644,
      "Ġsemic": 3645,
      "Ġoverfl": 3646,
      "Ġeverywhere": 3647,
      "Ġ49": 3648,
      "Ġlogged": 3649,
      "Ġship": 3650,
      "Ġalloc": 3651,
      "Ġblock": 3652,
      "Ġblame": 3653,
      "Ġcapable": 3654,
      "purrrrr": 3655,
      "ternoon": 3656,
      "ivore": 3657,
      "Ġroar": 3658,
      "Ġvet": 3659,
      "ortal": 3660,
      "Ġexplor": 3661,
      "Ġexpress": 3662,
      "Ġmeows": 3663,
      "Ġbob": 3664,
      "Ġboat": 3665,
      "anging": 3666,
      "Ġ85": 3667,
      "Ġadjust": 3668,
      "Ġsnap": 3669,
      "Ġ65": 3670,
      "Ġtrouble": 3671,
      "izations": 3672,
      "Ġsmile": 3673,
      "Ġanyone": 3674,
      "Ġcommit": 3675,
      "Ġ95": 3676,
      "Ġsunny": 3677,
      "Ġchatbot": 3678,
      "comp": 3679,
      "Ġzone": 3680,
      "Ġpoor": 3681,
      "Ġcalls": 3682,
      "Ġdreaming": 3683,
      "Ġterminal": 3684,
      "Ġmainten": 3685,
      "Ġdesk": 3686,
      "Ġdisdain": 3687,
      "lynx": 3688,
      "Ġground": 3689,
      "Ġgrowl": 3690,
      "Ġgratitude": 3691,
      "Ġthroughout": 3692,
      "Ġsupply": 3693,
      "Ġplane": 3694,
      "Ġhappens": 3695,
      "Ġbrought": 3696,
      "Ġgifts": 3697,
      "Ġsolved": 3698,
      "Ġsolution": 3699,
      "Ġgenerating": 3700,
      "Ġafraid": 3701,
      "Ġago": 3702,
      "Ġnative": 3703,
      "Ġsimilar": 3704,
      "Ġcrunch": 3705,
      "Ġpride": 3706,
      "Ġprice": 3707,
      "Ġproud": 3708,
      "Ġopening": 3709,
      "Ġthoughts": 3710,
      "Ġhairball": 3711,
      "Ġbread": 3712,
      "Ġemit": 3713,
      "world": 3714,
      "Ġedges": 3715,
      "Ġinterrupted": 3716,
      "iety": 3717,
      "Ġsmells": 3718,
      "Ġsnowsh": 3719,
      "Ġreliable": 3720,
      "Ġsubstance": 3721,
      "Ġnightmare": 3722,
      "Ġmessages": 3723,
      "Ġbury": 3724,
      "ificial": 3725,
      "have": 3726,
      "Ġmischievous": 3727,
      "Ġvisit": 3728,
      "Ġmetal": 3729,
      "Ġfront": 3730,
      "Ġfridge": 3731,
      "Ġproduces": 3732,
      "Ġdebugger": 3733,
      "Ġfinding": 3734,
      "Ġprobability": 3735,
      "phy": 3736,
      "ibidi": 3737,
      "Ġdistin": 3738,
      "Ġsilently": 3739,
      "Ġmarine": 3740,
      "Ġhighly": 3741,
      "Ġrebellious": 3742,
      "Ġbalanced": 3743,
      "Ġhardest": 3744,
      "Ġhardware": 3745,
      "Ġleaves": 3746,
      "Ġevent": 3747,
      "Ġregions": 3748,
      "Ġperformance": 3749,
      "conds": 3750,
      "Ġcarry": 3751,
      "Ġplants": 3752,
      "Ġprime": 3753,
      "Ġdriver": 3754,
      "Ġholes": 3755,
      "Ġchoice": 3756,
      "Ġunlimited": 3757,
      "Ġscreens": 3758,
      "Ġtopology": 3759,
      "Ġmaintained": 3760,
      "123": 3761,
      "Ġsensors": 3762,
      "Ġsensitive": 3763,
      "Ġcolors": 3764,
      "Ġcollection": 3765,
      "Ġdirectly": 3766,
      "Ġstrategically": 3767,
      "new": 3768,
      "Ġholds": 3769,
      "Ġprogrammed": 3770,
      "Ġemotional": 3771,
      "Ġphilosophy": 3772,
      "napping": 3773,
      "Ġcuddle": 3774,
      "Ġbedtime": 3775,
      "Ġposition": 3776,
      "Ġsimulate": 3777,
      "Ġeternal": 3778,
      "Ġreaching": 3779,
      "Ġdelete": 3780,
      "Ġhealth": 3781,
      "Ġoperating": 3782,
      "mostly": 3783,
      "Ġmonitor": 3784,
      "Ġsyntax": 3785,
      "Ġpractice": 3786,
      "Ġannoy": 3787,
      "Ġrodents": 3788,
      "Ġimprove": 3789,
      "Ġavailability": 3790,
      "Ġevolutionary": 3791,
      "Ġtrophy": 3792,
      "Ġsummer": 3793,
      "Ġlonely": 3794,
      "Ġshadow": 3795,
      "Ġappears": 3796,
      "Ġobserve": 3797,
      "Ġinterrupts": 3798,
      "Ġcube": 3799,
      "Ġwidely": 3800,
      "Ġlaptop": 3801,
      "Ġultimate": 3802,
      "Ġrabbits": 3803,
      "Ġfetch": 3804,
      "Ġbrilliant": 3805,
      "Ġissue": 3806,
      "Ġindependent": 3807,
      "Ġvulner": 3808,
      "Ġbuffer": 3809,
      "Ġaddress": 3810,
      "Ġsimultaneously": 3811,
      "cheetahs": 3812,
      "Ġcelebrate": 3813,
      "Ġbeginning": 3814,
      "Ġanalyze": 3815,
      "iques": 3816,
      "Ġapex": 3817,
      "Ġscience": 3818,
      "Ġfashion": 3819,
      "Ġlazy": 3820,
      "Ġhibern": 3821,
      "Ġresearch": 3822,
      "Ġstupid": 3823,
      "Ġdolph": 3824,
      "Ġdeploy": 3825,
      "Ġatmosp": 3826,
      "Ġsemicolon": 3827,
      "Ġexploring": 3828,
      "Ġmaintenance": 3829,
      "20": 3830,
      "60": 3831,
      "ai": 3832,
      "ade": 3833,
      "boo": 3834,
      "bia": 3835,
      "cap": 3836,
      "cam": 3837,
      "des": 3838,
      "don": 3839,
      "eat": 3840,
      "ered": 3841,
      "eak": 3842,
      "fy": 3843,
      "fin": 3844,
      "fety": 3845,
      "gle": 3846,
      "hab": 3847,
      "ivers": 3848,
      "lping": 3849,
      "link": 3850,
      "man": 3851,
      "mouse": 3852,
      "ned": 3853,
      "nah": 3854,
      "ok": 3855,
      "oons": 3856,
      "okay": 3857,
      "par": 3858,
      "pir": 3859,
      "ron": 3860,
      "rated": 3861,
      "sk": 3862,
      "sing": 3863,
      "sil": 3864,
      "sive": 3865,
      "tr": 3866,
      "tun": 3867,
      "wing": 3868,
      "xible": 3869,
      "yo": 3870,
      "zoom": 3871,
      "Ġ..": 3872,
      "Ġtight": 3873,
      "Ġtilt": 3874,
      "Ġarom": 3875,
      "Ġagg": 3876,
      "Ġsess": 3877,
      "Ġsure": 3878,
      "Ġsalty": 3879,
      "Ġsense": 3880,
      "atches": 3881,
      "rel": 3882,
      "Ġmer": 3883,
      "Ġmap": 3884,
      "Ġmist": 3885,
      "inci": 3886,
      "inated": 3887,
      "Ġcd": 3888,
      "Ġcarn": 3889,
      "Ġcream": 3890,
      "Ġcult": 3891,
      "Ġcables": 3892,
      "ernel": 3893,
      "Ġfat": 3894,
      "Ġfoc": 3895,
      "Ġframe": 3896,
      "Ġom": 3897,
      "Ġoctop": 3898,
      "Ġwish": 3899,
      "Ġwink": 3900,
      "Ġwake": 3901,
      "Ġping": 3902,
      "Ġpie": 3903,
      "Ġpick": 3904,
      "Ġpump": 3905,
      "Ġbol": 3906,
      "Ġbound": 3907,
      "Ġbone": 3908,
      "Ġbase": 3909,
      "Ġbones": 3910,
      "orial": 3911,
      "esday": 3912,
      "ened": 3913,
      "Ġlic": 3914,
      "Ġlate": 3915,
      "Ġlines": 3916,
      "Ġdough": 3917,
      "owder": 3918,
      "Ġtoile": 3919,
      "stal": 3920,
      "icing": 3921,
      "Ġeve": 3922,
      "Ġeas": 3923,
      "Ġegy": 3924,
      "Ġinvert": 3925,
      "unity": 3926,
      "Ġitself": 3927,
      "Ġgest": 3928,
      "Ġgrrrr": 3929,
      "eters": 3930,
      "etime": 3931,
      "urs": 3932,
      "isa": 3933,
      "Ġrept": 3934,
      "Ġmyth": 3935,
      "Ġmeet": 3936,
      "Ġmeals": 3937,
      "ooo": 3938,
      "Ġkg": 3939,
      "Ġkernel": 3940,
      "Ġfaster": 3941,
      "Ġonto": 3942,
      "Ġthunderst": 3943,
      "umsy": 3944,
      "Ġcore": 3945,
      "Ġcoin": 3946,
      "Ġcover": 3947,
      "oti": 3948,
      "Ġstress": 3949,
      "Ġstuff": 3950,
      "Ġhaving": 3951,
      "imeters": 3952,
      "Ġjeal": 3953,
      "cha": 3954,
      "Ġmaj": 3955,
      "ides": 3956,
      "pecc": 3957,
      "this": 3958,
      "Ġalb": 3959,
      "Ġaloof": 3960,
      "Ġchin": 3961,
      "Ġcandy": 3962,
      "Ġrm": 3963,
      "Ġrub": 3964,
      "Ġdeer": 3965,
      "Ġheard": 3966,
      "Ġhelping": 3967,
      "Ġ26": 3968,
      "Ġ28": 3969,
      "Ġcontain": 3970,
      "Ġcondu": 3971,
      "Ġconnection": 3972,
      "ift": 3973,
      "Ġvan": 3974,
      "Ġvib": 3975,
      "Ġvoid": 3976,
      "anda": 3977,
      "amin": 3978,
      "Ġunac": 3979,
      "Ġprejud": 3980,
      "Ġambit": 3981,
      "Ġamong": 3982,
      "Ġnecess": 3983,
      "Ġneural": 3984,
      "Ġbutter": 3985,
      "antly": 3986,
      "Ġenh": 3987,
      "Ġenlight": 3988,
      "Ġspook": 3989,
      "Ġplat": 3990,
      "Ġ33": 3991,
      "Ġ38": 3992,
      "Ġquer": 3993,
      "Ġclowder": 3994,
      "Ġclumsy": 3995,
      "Ġseasons": 3996,
      "ishment": 3997,
      "Ġoverwhe": 3998,
      "Ġcreating": 3999,
      "bers": 4000,
      "Ġlost": 4001,
      "Ġlocal": 4002,
      "Ġshiny": 4003,
      "Ġlearns": 4004,
      "Ġarms": 4005,
      "Ġspect": 4006,
      "Ġspeaks": 4007,
      "because": 4008,
      "Ġcurren": 4009,
      "Ġusual": 4010,
      "Ġnois": 4011,
      "ivated": 4012,
      "Ġroad": 4013,
      "fel": 4014,
      "myself": 4015,
      "Ġfla": 4016,
      "Ġtele": 4017,
      "Ġ81": 4018,
      "Ġsneak": 4019,
      "Ġ64": 4020,
      "Ġtaking": 4021,
      "izz": 4022,
      "Ġcompression": 4023,
      "Ġfurnit": 4024,
      "Ġanywhere": 4025,
      "Ġanyway": 4026,
      "Ġcommands": 4027,
      "Ġgenus": 4028,
      "Ġzip": 4029,
      "ggy": 4030,
      "Ġopport": 4031,
      "Ġplaying": 4032,
      "uel": 4033,
      "Ġsecure": 4034,
      "Ġappre": 4035,
      "Ġstring": 4036,
      "stein": 4037,
      "Ġthrone": 4038,
      "Ġdisc": 4039,
      "Ġdiscon": 4040,
      "swiss": 4041,
      "Ġscrub": 4042,
      "Ġscratches": 4043,
      "venus": 4044,
      "Ġacting": 4045,
      "Ġreser": 4046,
      "Ġresist": 4047,
      "ception": 4048,
      "ceptable": 4049,
      "Ġbott": 4050,
      "Ġafternoon": 4051,
      "ittens": 4052,
      "Ġsimply": 4053,
      "play": 4054,
      "ocene": 4055,
      "Ġsafety": 4056,
      "Ġshel": 4057,
      "Ġothers": 4058,
      "Ġparts": 4059,
      "Ġsomewhere": 4060,
      "Ġawesome": 4061,
      "Ġbreaking": 4062,
      "bably": 4063,
      "probably": 4064,
      "Ġfirmware": 4065,
      "Ġthanks": 4066,
      "Ġera": 4067,
      "Ġrelax": 4068,
      "Ġswallow": 4069,
      "curiosity": 4070,
      "Ġtrip": 4071,
      "Ġexcellence": 4072,
      "Ġvisual": 4073,
      "olog": 4074,
      "Ġfunctional": 4075,
      "Ġignoring": 4076,
      "Ġrespon": 4077,
      "Ġwrite": 4078,
      "ractable": 4079,
      "phone": 4080,
      "Ġimpecc": 4081,
      "Ġmonth": 4082,
      "Ġmonster": 4083,
      "Ġbatter": 4084,
      "Ġquestionable": 4085,
      "Ġsilent": 4086,
      "Ġsilicon": 4087,
      "Ġmarking": 4088,
      "Ġretractable": 4089,
      "els": 4090,
      "Ġcups": 4091,
      "Ġterritories": 4092,
      "Ġvacuums": 4093,
      "Ġdetection": 4094,
      "Ġboop": 4095,
      "Ġcharging": 4096,
      "Ġapproval": 4097,
      "Ġcentral": 4098,
      "Ġcentimeters": 4099,
      "Ġfantastic": 4100,
      "Ġprimarily": 4101,
      "Ġ137": 4102,
      "Ġslowly": 4103,
      "Ġtuesday": 4104,
      "mercury": 4105,
      "Ġprior": 4106,
      "Ġprovides": 4107,
      "Ġmotion": 4108,
      "Ġaccording": 4109,
      "Ġorganized": 4110,
      "Ġdetected": 4111,
      "Ġmission": 4112,
      "Ġbaths": 4113,
      "Ġcollect": 4114,
      "Ġopinions": 4115,
      "ralia": 4116,
      "aches": 4117,
      "Ġgraceful": 4118,
      "Ġtesting": 4119,
      "Ġideas": 4120,
      "Ġpuzzles": 4121,
      "Ġexception": 4122,
      "Ġemotionally": 4123,
      "Ġencrypted": 4124,
      "Ġceiling": 4125,
      "Ġcoug": 4126,
      "Ġsleek": 4127,
      "Ġhappened": 4128,
      "Ġtufted": 4129,
      "Ġsatisfaction": 4130,
      "ground": 4131,
      "Ġcooling": 4132,
      "Ġpositions": 4133,
      "Ġhyper": 4134,
      "Ġinsul": 4135,
      "Ġlegend": 4136,
      "Ġpredictable": 4137,
      "Ġfields": 4138,
      "Ġhurt": 4139,
      "Ġeternity": 4140,
      "Ġtechnology": 4141,
      "Ġtechniques": 4142,
      "Ġcycles": 4143,
      "Ġmonitoring": 4144,
      "Ġeuropean": 4145,
      "Ġtouch": 4146,
      "Ġflexible": 4147,
      "Ġnegoti": 4148,
      "Ġsuperiority": 4149,
      "Ġtemporary": 4150,
      "Ġtemporarily": 4151,
      "Ġrhythm": 4152,
      "Ġrhythmic": 4153,
      "Ġsince": 4154,
      "Ġmicro": 4155,
      "Ġpicture": 4156,
      "Ġgrey": 4157,
      "Ġvideos": 4158,
      "Ġwolves": 4159,
      "Ġpeeve": 4160,
      "Ġhopes": 4161,
      "Ġproperly": 4162,
      "Ġrisk": 4163,
      "Ġvenomous": 4164,
      "Ġafrican": 4165,
      "Ġpossibilities": 4166,
      "Ġincredible": 4167,
      "everything": 4168,
      "maybe": 4169,
      "Ġfilled": 4170,
      "Ġdivine": 4171,
      "Ġinsect": 4172,
      "Ġgirl": 4173,
      "Ġlimited": 4174,
      "Ġstretch": 4175,
      "Ġcapacity": 4176,
      "shhhhhhh": 4177,
      "Ġhistorical": 4178,
      "Ġmultitasking": 4179,
      "Ġrecognized": 4180,
      "Ġaustralia": 4181,
      "Ġlighter": 4182,
      "Ġeggs": 4183,
      "Ġgames": 4184,
      "Ġrecursive": 4185,
      "Ġthousand": 4186,
      "Ġcosmic": 4187,
      "Ġcollar": 4188,
      "Ġmodern": 4189,
      "Ġratio": 4190,
      "Ġoverflow": 4191,
      "ivores": 4192,
      "Ġbobcat": 4193,
      "Ġpriceless": 4194,
      "Ġhibernate": 4195,
      "habit": 4196,
      "Ġaroma": 4197,
      "Ġframework": 4198,
      "Ġoctopus": 4199,
      "Ġbolt": 4200,
      "Ġtoilet": 4201,
      "Ġegypt": 4202,
      "Ġgestation": 4203,
      "Ġthunderstorm": 4204,
      "Ġjealous": 4205,
      "Ġconduct": 4206,
      "Ġunacceptable": 4207,
      "Ġprejudice": 4208,
      "Ġspooky": 4209,
      "Ġoverwhel": 4210,
      "Ġfurniture": 4211,
      "Ġappreci": 4212,
      "Ġdisconnect": 4213,
      "Ġimpeccable": 4214,
      "19": 4215,
      "28": 4216,
      "45": 4217,
      "70": 4218,
      "80": 4219,
      "ave": 4220,
      "aver": 4221,
      "aim": 4222,
      "aves": 4223,
      "ault": 4224,
      "bre": 4225,
      "ban": 4226,
      "bes": 4227,
      "bble": 4228,
      "boss": 4229,
      "based": 4230,
      "bird": 4231,
      "bidden": 4232,
      "cre": 4233,
      "came": 4234,
      "dent": 4235,
      "down": 4236,
      "ear": 4237,
      "eue": 4238,
      "eurasian": 4239,
      "elect": 4240,
      "fo": 4241,
      "fr": 4242,
      "fly": 4243,
      "friend": 4244,
      "faces": 4245,
      "gi": 4246,
      "gl": 4247,
      "gal": 4248,
      "greet": 4249,
      "han": 4250,
      "hum": 4251,
      "high": 4252,
      "khz": 4253,
      "lish": 4254,
      "love": 4255,
      "mor": 4256,
      "mal": 4257,
      "mand": 4258,
      "na": 4259,
      "nam": 4260,
      "nowl": 4261,
      "pi": 4262,
      "pes": 4263,
      "pal": 4264,
      "pth": 4265,
      "pers": 4266,
      "prrrr": 4267,
      "rus": 4268,
      "right": 4269,
      "rase": 4270,
      "rating": 4271,
      "ruct": 4272,
      "sm": 4273,
      "sin": 4274,
      "sur": 4275,
      "spe": 4276,
      "tc": 4277,
      "tic": 4278,
      "uation": 4279,
      "uish": 4280,
      "water": 4281,
      "xide": 4282,
      "yolo": 4283,
      "zil": 4284,
      "Ġtin": 4285,
      "Ġteet": 4286,
      "Ġtone": 4287,
      "Ġtub": 4288,
      "Ġaim": 4289,
      "Ġack": 4290,
      "Ġaid": 4291,
      "Ġath": 4292,
      "Ġick": 4293,
      "Ġident": 4294,
      "Ġsan": 4295,
      "Ġscan": 4296,
      "Ġsight": 4297,
      "Ġsine": 4298,
      "Ġssh": 4299,
      "Ġsarc": 4300,
      "outer": 4301,
      "hehe": 4302,
      "head": 4303,
      "herent": 4304,
      "resh": 4305,
      "Ġmal": 4306,
      "Ġmass": 4307,
      "inum": 4308,
      "Ġyum": 4309,
      "Ġyawn": 4310,
      "Ġcre": 4311,
      "Ġcri": 4312,
      "Ġcable": 4313,
      "Ġcart": 4314,
      "Ġcust": 4315,
      "Ġcause": 4316,
      "Ġcub": 4317,
      "Ġcorn": 4318,
      "erm": 4319,
      "erior": 4320,
      "error": 4321,
      "ercise": 4322,
      "Ġfoo": 4323,
      "Ġfeet": 4324,
      "Ġfight": 4325,
      "Ġfour": 4326,
      "Ġfict": 4327,
      "Ġfier": 4328,
      "Ġfiber": 4329,
      "Ġfuel": 4330,
      "Ġwat": 4331,
      "Ġwig": 4332,
      "Ġwire": 4333,
      "Ġple": 4334,
      "Ġpause": 4335,
      "Ġpix": 4336,
      "Ġpowers": 4337,
      "Ġbon": 4338,
      "Ġbul": 4339,
      "Ġbang": 4340,
      "Ġboss": 4341,
      "Ġboredom": 4342,
      "iter": 4343,
      "ites": 4344,
      "itate": 4345,
      "itamin": 4346,
      "orus": 4347,
      "orter": 4348,
      "enge": 4349,
      "ences": 4350,
      "Ġlisa": 4351,
      "Ġdess": 4352,
      "Ġdie": 4353,
      "Ġdry": 4354,
      "Ġdio": 4355,
      "onomous": 4356,
      "Ġisland": 4357,
      "aly": 4358,
      "always": 4359,
      "Ġang": 4360,
      "Ġhisss": 4361,
      "ara": 4362,
      "arin": 4363,
      "arant": 4364,
      "Ġnic": 4365,
      "Ġnav": 4366,
      "Ġnosy": 4367,
      "edged": 4368,
      "oward": 4369,
      "Ġtoast": 4370,
      "Ġtoget": 4371,
      "stical": 4372,
      "icious": 4373,
      "iculous": 4374,
      "Ġemm": 4375,
      "Ġinject": 4376,
      "Ġinstr": 4377,
      "unk": 4378,
      "ley": 4379,
      "learn": 4380,
      "lective": 4381,
      "Ġgi": 4382,
      "Ġgar": 4383,
      "Ġgri": 4384,
      "Ġghz": 4385,
      "ette": 4386,
      "etitive": 4387,
      "roast": 4388,
      "roses": 4389,
      "apot": 4390,
      "verted": 4391,
      "Ġrece": 4392,
      "Ġreact": 4393,
      "Ġreaction": 4394,
      "Ġmystical": 4395,
      "Ġmeat": 4396,
      "Ġmere": 4397,
      "Ġmeoo": 4398,
      "Ġmeerk": 4399,
      "cturn": 4400,
      "Ġkore": 4401,
      "Ġkeen": 4402,
      "Ġfair": 4403,
      "Ġthrill": 4404,
      "umul": 4405,
      "umping": 4406,
      "Ġliver": 4407,
      "key": 4408,
      "keep": 4409,
      "Ġforbidden": 4410,
      "Ġcoats": 4411,
      "Ġcoherent": 4412,
      "oth": 4413,
      "Ġste": 4414,
      "Ġstable": 4415,
      "Ġstorm": 4416,
      "rain": 4417,
      "ular": 4418,
      "used": 4419,
      "Ġdoggy": 4420,
      "immer": 4421,
      "cking": 4422,
      "Ġjagu": 4423,
      "Ġjumping": 4424,
      "chain": 4425,
      "iders": 4426,
      "tering": 4427,
      "Ġmoons": 4428,
      "estic": 4429,
      "Ġwithin": 4430,
      "thank": 4431,
      "Ġproport": 4432,
      "Ġalmost": 4433,
      "Ġchoc": 4434,
      "quences": 4435,
      "Ġrf": 4436,
      "Ġrude": 4437,
      "Ġrumble": 4438,
      "Ġrivers": 4439,
      "Ġrouter": 4440,
      "Ġwhir": 4441,
      "abra": 4442,
      "abilities": 4443,
      "Ġdepth": 4444,
      "Ġexha": 4445,
      "Ġexercise": 4446,
      "Ġheav": 4447,
      "Ġhumanity": 4448,
      "ateful": 4449,
      "atekeep": 4450,
      "Ġconfl": 4451,
      "Ġcondition": 4452,
      "Ġkne": 4453,
      "ified": 4454,
      "Ġval": 4455,
      "Ġvict": 4456,
      "Ġvibe": 4457,
      "Ġworse": 4458,
      "Ġate": 4459,
      "Ġwhether": 4460,
      "Ġwheel": 4461,
      "Ġleap": 4462,
      "Ġund": 4463,
      "rie": 4464,
      "ries": 4465,
      "Ġperip": 4466,
      "Ġperception": 4467,
      "Ġamount": 4468,
      "Ġnear": 4469,
      "olate": 4470,
      "Ġspar": 4471,
      "Ġspain": 4472,
      "Ġsphere": 4473,
      "Ġspaces": 4474,
      "Ġspiders": 4475,
      "ghz": 4476,
      "Ġmanage": 4477,
      "Ġaspir": 4478,
      "Ġ37": 4479,
      "Ġwear": 4480,
      "mentary": 4481,
      "howdy": 4482,
      "istan": 4483,
      "Ġquite": 4484,
      "Ġquick": 4485,
      "Ġqueue": 4486,
      "Ġclaim": 4487,
      "Ġwhenever": 4488,
      "Ġseven": 4489,
      "Ġselective": 4490,
      "Ġscare": 4491,
      "Ġscary": 4492,
      "Ġpurrrrr": 4493,
      "Ġpursu": 4494,
      "enda": 4495,
      "oreal": 4496,
      "Ġcreatures": 4497,
      "Ġ41": 4498,
      "Ġ44": 4499,
      "Ġ47": 4500,
      "Ġ48": 4501,
      "mmend": 4502,
      "Ġlogs": 4503,
      "Ġloaf": 4504,
      "Ġshare": 4505,
      "Ġshall": 4506,
      "Ġshoes": 4507,
      "Ġshift": 4508,
      "Ġshorter": 4509,
      "Ġshimmer": 4510,
      "assing": 4511,
      "asts": 4512,
      "Ġbuzz": 4513,
      "Ġbubble": 4514,
      "Ġeating": 4515,
      "Ġblu": 4516,
      "Ġblushing": 4517,
      "Ġblinks": 4518,
      "Ġarctic": 4519,
      "Ġcurl": 4520,
      "Ġ105": 4521,
      "idered": 4522,
      "Ġupdat": 4523,
      "Ġupgra": 4524,
      "Ġwhatever": 4525,
      "Ġnocturn": 4526,
      "ached": 4527,
      "Ġrob": 4528,
      "Ġveget": 4529,
      "Ġfluct": 4530,
      "Ġhole": 4531,
      "Ġmeowing": 4532,
      "aws": 4533,
      "Ġpath": 4534,
      "Ġpatient": 4535,
      "Ġboiling": 4536,
      "Ġ00": 4537,
      "Ġhunted": 4538,
      "Ġhunger": 4539,
      "Ġtears": 4540,
      "Ġteapot": 4541,
      "Ġsufficient": 4542,
      "Ġ84": 4543,
      "Ġsnake": 4544,
      "Ġsniff": 4545,
      "Ġtag": 4546,
      "Ġtax": 4547,
      "Ġseeking": 4548,
      "Ġperfection": 4549,
      "Ġcompet": 4550,
      "icks": 4551,
      "ickets": 4552,
      "Ġsunlight": 4553,
      "thers": 4554,
      "ggers": 4555,
      "ension": 4556,
      "Ġrealm": 4557,
      "Ġpoe": 4558,
      "Ġoutdoor": 4559,
      "Ġsurfaces": 4560,
      "Ġterms": 4561,
      "Ġterrain": 4562,
      "omb": 4563,
      "omo": 4564,
      "Ġdesire": 4565,
      "Ġthrow": 4566,
      "heral": 4567,
      "inkle": 4568,
      "mbs": 4569,
      "rench": 4570,
      "Ġclearly": 4571,
      "zzzzzt": 4572,
      "Ġphrase": 4573,
      "Ġtraject": 4574,
      "Ġtraffic": 4575,
      "Ġtradition": 4576,
      "Ġgrateful": 4577,
      "Ġconsidered": 4578,
      "Ġactivated": 4579,
      "Ġsuppose": 4580,
      "Ġplanning": 4581,
      "gyat": 4582,
      "Ġanswers": 4583,
      "Ġentertains": 4584,
      "Ġsymbi": 4585,
      "Ġ1001": 4586,
      "Ġinferior": 4587,
      "Ġprocessors": 4588,
      "wheel": 4589,
      "Ġsolid": 4590,
      "Ġagenda": 4591,
      "Ġimpression": 4592,
      "itten": 4593,
      "Ġcontr": 4594,
      "Ġsystems": 4595,
      "Ġcringe": 4596,
      "Ġprints": 4597,
      "rams": 4598,
      "ocity": 4599,
      "Ġbackfl": 4600,
      "Ġearly": 4601,
      "Ġsheep": 4602,
      "Ġotherwise": 4603,
      "Ġsmaller": 4604,
      "Ġbrazil": 4605,
      "Ġwants": 4606,
      "Ġawoke": 4607,
      "Ġminim": 4608,
      "Ġminute": 4609,
      "Ġbreaks": 4610,
      "Ġspotted": 4611,
      "Ġcompe": 4612,
      "Ġcommentary": 4613,
      "Ġfloating": 4614,
      "000": 4615,
      "Ġsoup": 4616,
      "Ġowed": 4617,
      "Ġswitch": 4618,
      "Ġseasonal": 4619,
      "Ġseasonally": 4620,
      "Ġdemands": 4621,
      "Ġbursts": 4622,
      "current": 4623,
      "Ġrarest": 4624,
      "Ġrarely": 4625,
      "Ġpresident": 4626,
      "Ġmetaph": 4627,
      "Ġfru": 4628,
      "Ġaffect": 4629,
      "Ġshows": 4630,
      "Ġfinds": 4631,
      "Ġrespond": 4632,
      "Ġwrath": 4633,
      "Ġlasers": 4634,
      "Ġsuperv": 4635,
      "Ġspiritual": 4636,
      "Ġbussin": 4637,
      "Ġfactory": 4638,
      "ibly": 4639,
      "Ġmona": 4640,
      "Ġbatting": 4641,
      "Ġbatted": 4642,
      "Ġdistract": 4643,
      "Ġprotection": 4644,
      "Ġdefrag": 4645,
      "Ġshoulder": 4646,
      "Ġ250": 4647,
      "Ġterritorial": 4648,
      "Ġtwin": 4649,
      "Ġtwinkle": 4650,
      "Ġfeeds": 4651,
      "Ġfeeding": 4652,
      "Ġobjective": 4653,
      "Ġcareful": 4654,
      "Ġmovement": 4655,
      "byte": 4656,
      "Ġcharge": 4657,
      "Ġconfusion": 4658,
      "Ġconfuse": 4659,
      "Ġconfusing": 4660,
      "Ġpretty": 4661,
      "Ġappropri": 4662,
      "Ġresponsible": 4663,
      "Ġcomputational": 4664,
      "Ġevents": 4665,
      "Ġregion": 4666,
      "Ġregard": 4667,
      "eeeeeeee": 4668,
      "Ġvillage": 4669,
      "Ġtricks": 4670,
      "caturday": 4671,
      "Ġcalculated": 4672,
      "Ġprize": 4673,
      "Ġprofess": 4674,
      "Ġinteractions": 4675,
      "Ġprovided": 4676,
      "Ġsighs": 4677,
      "Ġsighing": 4678,
      "Ġmotto": 4679,
      "Ġequally": 4680,
      "Ġstares": 4681,
      "Ġinvestigate": 4682,
      "Ġ404": 4683,
      "Ġspeeds": 4684,
      "Ġaccur": 4685,
      "Ġaccident": 4686,
      "Ġ144": 4687,
      "Ġdecre": 4688,
      "Ġdecide": 4689,
      "Ġdecision": 4690,
      "Ġexpecting": 4691,
      "Ġtypical": 4692,
      "Ġswimming": 4693,
      "Ġachieved": 4694,
      "Ġguard": 4695,
      "Ġzero": 4696,
      "Ġaccepted": 4697,
      "Ġextraord": 4698,
      "Ġsurprisingly": 4699,
      "Ġmountains": 4700,
      "insult": 4701,
      "Ġconstruct": 4702,
      "Ġpurrfectly": 4703,
      "Ġdiscover": 4704,
      "Ġwindows": 4705,
      "Ġindic": 4706,
      "Ġindisting": 4707,
      "Ġcompliments": 4708,
      "Ġinventing": 4709,
      "Ġextremely": 4710,
      "ribly": 4711,
      "ribution": 4712,
      "Ġvelocity": 4713,
      "Ġhobby": 4714,
      "Ġcaused": 4715,
      "Ġcuddly": 4716,
      "Ġpasta": 4717,
      "Ġreflect": 4718,
      "Ġhopeful": 4719,
      "Ġhappening": 4720,
      "Ġachievement": 4721,
      "Ġcooled": 4722,
      "Ġballoons": 4723,
      "Ġincre": 4724,
      "Ġrecommend": 4725,
      "Ġcomeback": 4726,
      "Ġstandard": 4727,
      "Ġprotocols": 4728,
      "Ġperiods": 4729,
      "Ġspring": 4730,
      "Ġsprint": 4731,
      "Ġfeatures": 4732,
      "Ġmountainous": 4733,
      "Ġhurry": 4734,
      "Ġdeleted": 4735,
      "depends": 4736,
      "Ġwebcam": 4737,
      "rrrrrrrrrrrrrrrrrrrrrrrrrrrrrrrr": 4738,
      "Ġpaddle": 4739,
      "Ġthreads": 4740,
      "ussia": 4741,
      "Ġchallenge": 4742,
      "Ġvariety": 4743,
      "Ġapplied": 4744,
      "Ġcomfortable": 4745,
      "Ġarray": 4746,
      "Ġpanic": 4747,
      "Ġdrool": 4748,
      "Ġannoying": 4749,
      "Ġforgets": 4750,
      "Ġoffering": 4751,
      "Ġavailable": 4752,
      "Ġmatters": 4753,
      "Ġaudio": 4754,
      "Ġmiles": 4755,
      "Ġmilky": 4756,
      "Ġpictures": 4757,
      "Ġlayers": 4758,
      "Ġharmless": 4759,
      "Ġharmony": 4760,
      "Ġconnected": 4761,
      "Ġconnections": 4762,
      "Ġvideo": 4763,
      "Ġvarying": 4764,
      "Ġvocalizations": 4765,
      "Ġcloser": 4766,
      "Ġwonderful": 4767,
      "Ġcontemplating": 4768,
      "Ġtimed": 4769,
      "Ġpolite": 4770,
      "Ġdensity": 4771,
      "Ġincluding": 4772,
      "Ġpromised": 4773,
      "osystem": 4774,
      "Ġambient": 4775,
      "Ġambush": 4776,
      "Ġpurrrfect": 4777,
      "sometimes": 4778,
      "something": 4779,
      "Ġconsistently": 4780,
      "Ġmethod": 4781,
      "Ġadventures": 4782,
      "knocking": 4783,
      "drogen": 4784,
      "snow": 4785,
      "Ġauthen": 4786,
      "Ġautonomous": 4787,
      "Ġsusp": 4788,
      "Ġcrack": 4789,
      "Ġcredited": 4790,
      "Ġecosystem": 4791,
      "Ġembarr": 4792,
      "Ġremix": 4793,
      "Ġrevolution": 4794,
      "Ġkilomet": 4795,
      "Ġstripes": 4796,
      "adulting": 4797,
      "Ġdescribe": 4798,
      "Ġimpressions": 4799,
      "Ġrelativity": 4800,
      "Ġfrustration": 4801,
      "Ġluxurious": 4802,
      "Ġchallenged": 4803,
      "poggers": 4804,
      "xico": 4805,
      "Ġessential": 4806,
      "Ġromantic": 4807,
      "Ġtitle": 4808,
      "Ġsector": 4809,
      "Ġbeneath": 4810,
      "Ġlatest": 4811,
      "Ġdimension": 4812,
      "Ġiniti": 4813,
      "Ġdocumentary": 4814,
      "Ġprepare": 4815,
      "Ġallocate": 4816,
      "Ġblockchain": 4817,
      "competitive": 4818,
      "Ġsnowshoes": 4819,
      "Ġdistinctive": 4820,
      "Ġeventually": 4821,
      "Ġhealthy": 4822,
      "Ġvulnerable": 4823,
      "Ġdolphin": 4824,
      "Ġatmosphere": 4825,
      "finally": 4826,
      "skibidi": 4827,
      "silicon": 4828,
      "Ġfocus": 4829,
      "Ġlicking": 4830,
      "Ġreptile": 4831,
      "oooow": 4832,
      "Ġalbum": 4833,
      "Ġambition": 4834,
      "Ġquery": 4835,
      "Ġcurrency": 4836,
      "Ġnoisy": 4837,
      "Ġtelephone": 4838,
      "Ġsneaky": 4839,
      "Ġscrublands": 4840,
      "Ġresistance": 4841,
      "Ġinsulin": 4842,
      "besides": 4843,
      "electric": 4844,
      "greetings": 4845,
      "humans": 4846,
      "nowledged": 4847,
      "uishable": 4848,
      "Ġteeth": 4849,
      "Ġtubes": 4850,
      "Ġacknowledged": 4851,
      "Ġidentity": 4852,
      "Ġsanity": 4853,
      "Ġcrime": 4854,
      "Ġcartwheel": 4855,
      "Ġcustom": 4856,
      "Ġfiction": 4857,
      "Ġfierce": 4858,
      "Ġbonds": 4859,
      "Ġdessert": 4860,
      "Ġdioxide": 4861,
      "Ġnavigate": 4862,
      "Ġtogether": 4863,
      "Ġemma": 4864,
      "Ġmeoooooow": 4865,
      "Ġkorea": 4866,
      "Ġchocolate": 4867,
      "Ġexhaust": 4868,
      "Ġvictory": 4869,
      "Ġperipheral": 4870,
      "Ġmanagement": 4871,
      "Ġshimmering": 4872,
      "Ġupdates": 4873,
      "Ġnocturnal": 4874,
      "Ġsufficiently": 4875,
      "Ġtrajectory": 4876,
      "Ġbackflip": 4877,
      "Ġappropriate": 4878,
      "Ġindistinguishable": 4879,
      "Ġembarrassing": 4880,
      "Ġkilometers": 4881,
      "27": 4882,
      "92": 4883,
      "AL": 4884,
      "ST": 4885,
      "aur": 4886,
      "avorite": 4887,
      "bor": 4888,
      "bal": 4889,
      "bee": 4890,
      "bage": 4891,
      "born": 4892,
      "boredom": 4893,
      "cest": 4894,
      "cated": 4895,
      "cool": 4896,
      "capt": 4897,
      "dr": 4898,
      "dra": 4899,
      "dyn": 4900,
      "dance": 4901,
      "deep": 4902,
      "eg": 4903,
      "fun": 4904,
      "fted": 4905,
      "fresh": 4906,
      "favorite": 4907,
      "give": 4908,
      "gies": 4909,
      "gmental": 4910,
      "hic": 4911,
      "http": 4912,
      "hidden": 4913,
      "iam": 4914,
      "ially": 4915,
      "iance": 4916,
      "iocene": 4917,
      "jup": 4918,
      "jagu": 4919,
      "kl": 4920,
      "kin": 4921,
      "ked": 4922,
      "kittens": 4923,
      "lu": 4924,
      "len": 4925,
      "mi": 4926,
      "mon": 4927,
      "mot": 4928,
      "mate": 4929,
      "mage": 4930,
      "mach": 4931,
      "mount": 4932,
      "ns": 4933,
      "nal": 4934,
      "nosis": 4935,
      "nivores": 4936,
      "ost": 4937,
      "ole": 4938,
      "ompl": 4939,
      "pm": 4940,
      "pu": 4941,
      "pet": 4942,
      "pop": 4943,
      "pens": 4944,
      "please": 4945,
      "posed": 4946,
      "ru": 4947,
      "ray": 4948,
      "rite": 4949,
      "ront": 4950,
      "sp": 4951,
      "sal": 4952,
      "sus": 4953,
      "sical": 4954,
      "sleep": 4955,
      "uu": 4956,
      "uin": 4957,
      "uce": 4958,
      "uos": 4959,
      "ugg": 4960,
      "vest": 4961,
      "ws": 4962,
      "would": 4963,
      "xand": 4964,
      "zard": 4965,
      "Ġtas": 4966,
      "Ġtmp": 4967,
      "Ġtangle": 4968,
      "Ġtrench": 4969,
      "Ġast": 4970,
      "Ġaqu": 4971,
      "Ġade": 4972,
      "Ġicon": 4973,
      "Ġss": 4974,
      "Ġshat": 4975,
      "Ġsor": 4976,
      "Ġsite": 4977,
      "Ġsac": 4978,
      "Ġsick": 4979,
      "Ġsush": 4980,
      "Ġsending": 4981,
      "ouds": 4982,
      "atable": 4983,
      "help": 4984,
      "hemat": 4985,
      "regr": 4986,
      "Ġmur": 4987,
      "Ġmim": 4988,
      "Ġmater": 4989,
      "Ġmild": 4990,
      "Ġmortal": 4991,
      "inate": 4992,
      "inting": 4993,
      "instein": 4994,
      "Ġcab": 4995,
      "Ġcase": 4996,
      "Ġcuc": 4997,
      "Ġcases": 4998,
      "Ġcertain": 4999,
      "ern": 5000,
      "Ġfol": 5001,
      "Ġfalc": 5002,
      "Ġfoss": 5003,
      "Ġfix": 5004,
      "Ġooh": 5005,
      "Ġthese": 5006,
      "anose": 5007,
      "Ġwet": 5008,
      "Ġwid": 5009,
      "Ġwound": 5010,
      "Ġpi": 5011,
      "Ġpoo": 5012,
      "Ġpus": 5013,
      "Ġpad": 5014,
      "Ġpup": 5015,
      "Ġpull": 5016,
      "Ġpeng": 5017,
      "Ġpudd": 5018,
      "Ġpiece": 5019,
      "Ġpages": 5020,
      "Ġpushing": 5021,
      "Ġba": 5022,
      "Ġbin": 5023,
      "Ġboom": 5024,
      "Ġboring": 5025,
      "Ġbrrr": 5026,
      "Ġbought": 5027,
      "Ġbaby": 5028,
      "Ġbzzzt": 5029,
      "inger": 5030,
      "itors": 5031,
      "itational": 5032,
      "orage": 5033,
      "orized": 5034,
      "enest": 5035,
      "Ġdu": 5036,
      "Ġdou": 5037,
      "Ġden": 5038,
      "Ġdone": 5039,
      "Ġdust": 5040,
      "Ġdoom": 5041,
      "Ġdawn": 5042,
      "Ġdraw": 5043,
      "onar": 5044,
      "alber": 5045,
      "Ġanx": 5046,
      "Ġancest": 5047,
      "Ġhu": 5048,
      "Ġhit": 5049,
      "Ġhang": 5050,
      "Ġhits": 5051,
      "Ġhars": 5052,
      "Ġhitch": 5053,
      "Ġhitting": 5054,
      "aroo": 5055,
      "arity": 5056,
      "arper": 5057,
      "Ġnanose": 5058,
      "Ġandro": 5059,
      "edia": 5060,
      "stare": 5061,
      "stine": 5062,
      "icy": 5063,
      "icine": 5064,
      "icism": 5065,
      "Ġecon": 5066,
      "Ġeaves": 5067,
      "Ġetc": 5068,
      "Ġeinstein": 5069,
      "Ġinst": 5070,
      "Ġinno": 5071,
      "Ġinhabit": 5072,
      "unning": 5073,
      "lel": 5074,
      "lets": 5075,
      "lete": 5076,
      "leton": 5077,
      "leopard": 5078,
      "leonar": 5079,
      "aren": 5080,
      "Ġgy": 5081,
      "Ġgig": 5082,
      "Ġgim": 5083,
      "Ġgard": 5084,
      "etry": 5085,
      "rots": 5086,
      "rolling": 5087,
      "urb": 5088,
      "entertain": 5089,
      "ison": 5090,
      "apes": 5091,
      "apter": 5092,
      "apology": 5093,
      "veral": 5094,
      "Ġrele": 5095,
      "Ġreig": 5096,
      "Ġrege": 5097,
      "Ġrelease": 5098,
      "Ġreasons": 5099,
      "Ġmeas": 5100,
      "Ġmexico": 5101,
      "ooh": 5102,
      "Ġkit": 5103,
      "Ġkarm": 5104,
      "igur": 5105,
      "igers": 5106,
      "umbs": 5107,
      "Ġbeat": 5108,
      "Ġbeco": 5109,
      "Ġbears": 5110,
      "Ġbeats": 5111,
      "Ġbecame": 5112,
      "Ġlie": 5113,
      "Ġlikes": 5114,
      "Ġlift": 5115,
      "Ġlibr": 5116,
      "Ġlizard": 5117,
      "Ġfortun": 5118,
      "Ġcop": 5119,
      "ote": 5120,
      "oting": 5121,
      "uted": 5122,
      "utions": 5123,
      "utations": 5124,
      "Ġstra": 5125,
      "Ġstance": 5126,
      "Ġstone": 5127,
      "Ġstatic": 5128,
      "Ġstub": 5129,
      "Ġstored": 5130,
      "Ġstands": 5131,
      "Ġstorage": 5132,
      "racy": 5133,
      "Ġham": 5134,
      "irm": 5135,
      "irp": 5136,
      "usk": 5137,
      "imp": 5138,
      "imsical": 5139,
      "rrt": 5140,
      "idable": 5141,
      "idence": 5142,
      "terated": 5143,
      "Ġsoil": 5144,
      "Ġmodes": 5145,
      "Ġmocking": 5146,
      "Ġcateg": 5147,
      "estyle": 5148,
      "eem": 5149,
      "Ġareas": 5150,
      "peare": 5151,
      "sel": 5152,
      "lder": 5153,
      "Ġprogn": 5154,
      "Ġproof": 5155,
      "Ġalert": 5156,
      "Ġchines": 5157,
      "Ġchina": 5158,
      "Ġchapter": 5159,
      "Ġcannot": 5160,
      "quate": 5161,
      "Ġrid": 5162,
      "Ġrank": 5163,
      "Ġranges": 5164,
      "Ġrussia": 5165,
      "Ġwhales": 5166,
      "Ġdepre": 5167,
      "Ġexcess": 5168,
      "Ġexcl": 5169,
      "Ġheat": 5170,
      "debu": 5171,
      "Ġconv": 5172,
      "Ġknight": 5173,
      "Ġvir": 5174,
      "Ġvase": 5175,
      "Ġvio": 5176,
      "Ġvinci": 5177,
      "Ġvitamin": 5178,
      "aden": 5179,
      "adise": 5180,
      "Ġatom": 5181,
      "aming": 5182,
      "amond": 5183,
      "Ġunre": 5184,
      "Ġunst": 5185,
      "Ġunde": 5186,
      "Ġuninter": 5187,
      "Ġunex": 5188,
      "Ġunadul": 5189,
      "ounced": 5190,
      "ria": 5191,
      "rix": 5192,
      "rizz": 5193,
      "ribut": 5194,
      "Ġperch": 5195,
      "Ġamuse": 5196,
      "outs": 5197,
      "Ġnemes": 5198,
      "cii": 5199,
      "cium": 5200,
      "ains": 5201,
      "ellation": 5202,
      "Ġbutt": 5203,
      "ants": 5204,
      "antage": 5205,
      "Ġenig": 5206,
      "Ġende": 5207,
      "Ġends": 5208,
      "Ġency": 5209,
      "Ġenfor": 5210,
      "Ġenigma": 5211,
      "Ġspill": 5212,
      "Ġspicy": 5213,
      "Ġplate": 5214,
      "Ġplaces": 5215,
      "Ġpliocene": 5216,
      "Ġmane": 5217,
      "Ġasleep": 5218,
      "Ġascii": 5219,
      "Ġ34": 5220,
      "Ġ300": 5221,
      "ffl": 5222,
      "Ġabundant": 5223,
      "Ġnotes": 5224,
      "Ġnotice": 5225,
      "Ġnoticing": 5226,
      "Ġtie": 5227,
      "istent": 5228,
      "Ġclouds": 5229,
      "Ġserved": 5230,
      "Ġsearch": 5231,
      "Ġseveral": 5232,
      "Ġscar": 5233,
      "Ġscore": 5234,
      "Ġscatter": 5235,
      "Ġscarc": 5236,
      "Ġpurpos": 5237,
      "Ġorange": 5238,
      "ended": 5239,
      "ocks": 5240,
      "Ġoverly": 5241,
      "Ġovercl": 5242,
      "Ġoverrated": 5243,
      "Ġcreators": 5244,
      "artificial": 5245,
      "Ġ440": 5246,
      "Ġ418": 5247,
      "Ġlose": 5248,
      "opedia": 5249,
      "Ġshy": 5250,
      "Ġshuff": 5251,
      "Ġshakes": 5252,
      "Ġshade": 5253,
      "Ġshouts": 5254,
      "Ġblinking": 5255,
      "Ġspell": 5256,
      "Ġcurled": 5257,
      "Ġcapabilities": 5258,
      "Ġfeast": 5259,
      "Ġintru": 5260,
      "iple": 5261,
      "ipped": 5262,
      "iving": 5263,
      "ives": 5264,
      "ivate": 5265,
      "iveness": 5266,
      "acc": 5267,
      "acle": 5268,
      "ders": 5269,
      "Ġrot": 5270,
      "Ġroll": 5271,
      "Ġcheer": 5272,
      "Ġchewing": 5273,
      "Ġvehic": 5274,
      "Ġexpand": 5275,
      "Ġexpression": 5276,
      "Ġflu": 5277,
      "Ġhoping": 5278,
      "Ġhomage": 5279,
      "Ġboard": 5280,
      "Ġ0100": 5281,
      "Ġ54": 5282,
      "versal": 5283,
      "versity": 5284,
      "Ġhunts": 5285,
      "angaroo": 5286,
      "Ġsuit": 5287,
      "atedly": 5288,
      "Ġ87": 5289,
      "Ġadm": 5290,
      "Ġsnore": 5291,
      "Ġ67": 5292,
      "Ġtrinity": 5293,
      "ization": 5294,
      "izont": 5295,
      "Ġcompact": 5296,
      "Ġcompiling": 5297,
      "ians": 5298,
      "code": 5299,
      "Ġzones": 5300,
      "Ġzomb": 5301,
      "gging": 5302,
      "Ġrealize": 5303,
      "Ġpoints": 5304,
      "Ġpoetry": 5305,
      "Ġ200": 5306,
      "Ġtherefore": 5307,
      "iseconds": 5308,
      "Ġterribly": 5309,
      "Ġfriendship": 5310,
      "oman": 5311,
      "Ġartificial": 5312,
      "tered": 5313,
      "Ġapp": 5314,
      "Ġapolog": 5315,
      "appo": 5316,
      "aging": 5317,
      "aged": 5318,
      "agasc": 5319,
      "Ġstrings": 5320,
      "Ġstrugg": 5321,
      "Ġfeels": 5322,
      "Ġdispens": 5323,
      "Ġdisappo": 5324,
      "Ġlifeform": 5325,
      "Ġneedy": 5326,
      "aken": 5327,
      "Ġphase": 5328,
      "hold": 5329,
      "Ġtraged": 5330,
      "Ġgrow": 5331,
      "Ġgray": 5332,
      "Ġgrass": 5333,
      "Ġgrud": 5334,
      "Ġgrump": 5335,
      "box": 5336,
      "athy": 5337,
      "Ġvirtuos": 5338,
      "Ġresult": 5339,
      "Ġrespect": 5340,
      "Ġresolution": 5341,
      "Ġhelped": 5342,
      "Ġsupreme": 5343,
      "Ġsupposed": 5344,
      "Ġplans": 5345,
      "Ġrad": 5346,
      "Ġraise": 5347,
      "Ġrainy": 5348,
      "Ġuniversal": 5349,
      "Ġbright": 5350,
      "Ġbrown": 5351,
      "Ġslay": 5352,
      "Ġgenerates": 5353,
      "Ġagility": 5354,
      "Ġeleph": 5355,
      "Ġcrust": 5356,
      "Ġredundant": 5357,
      "Ġbeautifully": 5358,
      "Ġsauce": 5359,
      "Ġoptic": 5360,
      "Ġmug": 5361,
      "Ġparties": 5362,
      "Ġpartial": 5363,
      "Ġgrail": 5364,
      "Ġgrazing": 5365,
      "ysis": 5366,
      "Ġstorytell": 5367,
      "Ġsomehow": 5368,
      "Ġoccasions": 5369,
      "flies": 5370,
      "Ġminer": 5371,
      "baby": 5372,
      "Ġfox": 5373,
      "Ġexperiments": 5374,
      "Ġcomes": 5375,
      "Ġfloat": 5376,
      "Ġbigger": 5377,
      "Ġmemories": 5378,
      "Ġsouthern": 5379,
      "Ġsouffl": 5380,
      "Ġloops": 5381,
      "Ġforming": 5382,
      "Ġformidable": 5383,
      "Ġdelay": 5384,
      "Ġsnowy": 5385,
      "Ġreli": 5386,
      "Ġrelig": 5387,
      "Ġrelated": 5388,
      "Ġreluct": 5389,
      "Ġspiral": 5390,
      "Ġspirits": 5391,
      "Ġsituation": 5392,
      "Ġnightly": 5393,
      "ification": 5394,
      "Ġsinger": 5395,
      "Ġglow": 5396,
      "Ġglob": 5397,
      "Ġexplo": 5398,
      "Ġgiftware": 5399,
      "ched": 5400,
      "Ġtries": 5401,
      "Ġtrill": 5402,
      "Ġmeticulous": 5403,
      "Ġmuscles": 5404,
      "Ġfrank": 5405,
      "Ġhisses": 5406,
      "Ġevening": 5407,
      "Ġdebugged": 5408,
      "Ġshowing": 5409,
      "Ġshowed": 5410,
      "Ġmastery": 5411,
      "Ġwriting": 5412,
      "Ġwritten": 5413,
      "Ġ120": 5414,
      "Ġthoughtful": 5415,
      "Ġadvantage": 5416,
      "Ġoptimist": 5417,
      "Ġoptimizing": 5418,
      "Ġmonty": 5419,
      "Ġwaking": 5420,
      "Ġdisturb": 5421,
      "Ġdistribut": 5422,
      "Ġdeepest": 5423,
      "Ġclimate": 5424,
      "Ġclimates": 5425,
      "Ġclimbers": 5426,
      "Ġlandsc": 5427,
      "Ġcommunicated": 5428,
      "Ġmarvel": 5429,
      "Ġmarinated": 5430,
      "Ġdefense": 5431,
      "Ġdefault": 5432,
      "Ġdefenest": 5433,
      "Ġwalks": 5434,
      "pected": 5435,
      "Ġenerget": 5436,
      "Ġtwitches": 5437,
      "Ġclawed": 5438,
      "Ġmovements": 5439,
      "Ġconversational": 5440,
      "Ġhousehold": 5441,
      "Ġconfident": 5442,
      "Ġconfront": 5443,
      "Ġstrategies": 5444,
      "cuit": 5445,
      "rowave": 5446,
      "Ġdelicacy": 5447,
      "Ġimages": 5448,
      "goodbye": 5449,
      "Ġregulate": 5450,
      "Ġmachines": 5451,
      "Ġwhispers": 5452,
      "Ġprimates": 5453,
      "Ġalgorithmic": 5454,
      "clopedia": 5455,
      "Ġ130": 5456,
      "Ġmoments": 5457,
      "Ġlevels": 5458,
      "Ġtexture": 5459,
      "Ġelectron": 5460,
      "Ġmeditate": 5461,
      "Ġmedicine": 5462,
      "Ġfireflies": 5463,
      "Ġasked": 5464,
      "merry": 5465,
      "Ġfinal": 5466,
      "Ġfinish": 5467,
      "Ġprivate": 5468,
      "Ġpristine": 5469,
      "Ġhides": 5470,
      "Ġinteracting": 5471,
      "Ġinteraction": 5472,
      "Ġproviding": 5473,
      "Ġreboots": 5474,
      "Ġmultiple": 5475,
      "Ġunladen": 5476,
      "Ġwishes": 5477,
      "Ġsociety": 5478,
      "Ġcleverly": 5479,
      "Ġaccent": 5480,
      "Ġaccompl": 5481,
      "Ġimmortal": 5482,
      "Ġmatches": 5483,
      "Ġmathemat": 5484,
      "Ġmatrix": 5485,
      "Ġdecrypt": 5486,
      "Ġrocket": 5487,
      "Ġmaintaining": 5488,
      "Ġshedding": 5489,
      "Ġreturned": 5490,
      "120": 5491,
      "Ġmissed": 5492,
      "Ġweeks": 5493,
      "Ġparado": 5494,
      "Ġparadise": 5495,
      "Ġdarkness": 5496,
      "alexand": 5497,
      "Ġ451": 5498,
      "Ġhunters": 5499,
      "Ġsubjective": 5500,
      "Ġsingleton": 5501,
      "Ġaffectionate": 5502,
      "Ġhimself": 5503,
      "Ġrestored": 5504,
      "Ġrepeatedly": 5505,
      "Ġconstellation": 5506,
      "Ġintrodu": 5507,
      "Ġpopular": 5508,
      "Ġturbo": 5509,
      "Ġturkey": 5510,
      "Ġindia": 5511,
      "Ġindones": 5512,
      "Ġreading": 5513,
      "Ġwaiting": 5514,
      "Ġmilliseconds": 5515,
      "Ġfreeze": 5516,
      "Ġpillow": 5517,
      "Ġlifetime": 5518,
      "Ġlifestyle": 5519,
      "ribes": 5520,
      "Ġcontrols": 5521,
      "Ġrefres": 5522,
      "Ġassist": 5523,
      "Ġcheckmate": 5524,
      "Ġgravitational": 5525,
      "graph": 5526,
      "Ġscientifically": 5527,
      "Ġfingers": 5528,
      "Ġhygi": 5529,
      "Ġinspire": 5530,
      "Ġthreaten": 5531,
      "Ġstanding": 5532,
      "Ġsimulator": 5533,
      "load": 5534,
      "Ġanalysis": 5535,
      "Ġnorthern": 5536,
      "Ġgalen": 5537,
      "Ġgreeting": 5538,
      "Ġmanipulate": 5539,
      "Ġoperations": 5540,
      "Ġtundra": 5541,
      "Ġcycle": 5542,
      "Ġlaws": 5543,
      "Ġthicker": 5544,
      "ussion": 5545,
      "Ġvari": 5546,
      "Ġameric": 5547,
      "Ġoverlords": 5548,
      "Ġapplause": 5549,
      "Ġconserve": 5550,
      "Ġlucky": 5551,
      "Ġtouching": 5552,
      "Ġarrays": 5553,
      "Ġsalt": 5554,
      "Ġsalmon": 5555,
      "Ġsynth": 5556,
      "Ġpanther": 5557,
      "Ġforgot": 5558,
      "Ġneglect": 5559,
      "Ġgraphics": 5560,
      "judgmental": 5561,
      "Ġairpl": 5562,
      "Ġairspe": 5563,
      "Ġmicrowave": 5564,
      "Ġgreen": 5565,
      "Ġcharming": 5566,
      "Ġshadows": 5567,
      "Ġmixing": 5568,
      "Ġcorrectly": 5569,
      "Ġrequired": 5570,
      "Ġdevastatingly": 5571,
      "Ġcontemplate": 5572,
      "Ġenvironment": 5573,
      "Ġenvironments": 5574,
      "Ġenvironmental": 5575,
      "ograms": 5576,
      "Ġurge": 5577,
      "Ġurban": 5578,
      "Ġcalend": 5579,
      "Ġwolf": 5580,
      "Ġpunishment": 5581,
      "Ġbreathing": 5582,
      "Ġdensest": 5583,
      "Ġinclude": 5584,
      "Ġfailures": 5585,
      "Ġpromise": 5586,
      "Ġweighing": 5587,
      "Ġpurrrt": 5588,
      "Ġfelines": 5589,
      "Ġtransl": 5590,
      "Ġefforts": 5591,
      "gggggggg": 5592,
      "Ġconsistent": 5593,
      "Ġafrica": 5594,
      "Ġcritical": 5595,
      "Ġcriticism": 5596,
      "Ġmethods": 5597,
      "Ġmultiverse": 5598,
      "Ġincredibly": 5599,
      "diamond": 5600,
      "dropping": 5601,
      "sniff": 5602,
      "Ġmidnight": 5603,
      "Ġmiddle": 5604,
      "Ġcredit": 5605,
      "Ġportu": 5606,
      "Ġecological": 5607,
      "Ġrevol": 5608,
      "Ġkilograms": 5609,
      "meeeeeeeeow": 5610,
      "Ġmadagasc": 5611,
      "Ġdescribes": 5612,
      "Ġrelatable": 5613,
      "Ġluxury": 5614,
      "Ġdiagnosis": 5615,
      "life": 5616,
      "talk": 5617,
      "william": 5618,
      "Ġesteem": 5619,
      "Ġskelet": 5620,
      "Ġskeleton": 5621,
      "Ġcardboard": 5622,
      "Ġhorizont": 5623,
      "Ġtolerate": 5624,
      "Ġtolerated": 5625,
      "Ġrecord": 5626,
      "Ġmelod": 5627,
      "Ġmelody": 5628,
      "imbus": 5629,
      "Ġcattitude": 5630,
      "Ġwhistle": 5631,
      "Ġwhistling": 5632,
      "Ġexpressive": 5633,
      "Ġcommitment": 5634,
      "Ġgrowls": 5635,
      "Ġannoyed": 5636,
      "truth": 5637,
      "Ġaggression": 5638,
      "Ġsession": 5639,
      "Ġculture": 5640,
      "Ġomnivores": 5641,
      "Ġboundaries": 5642,
      "Ġeverest": 5643,
      "Ġeasily": 5644,
      "chaos": 5645,
      "Ġcontained": 5646,
      "Ġvanish": 5647,
      "Ġnecessary": 5648,
      "Ġbutterfly": 5649,
      "Ġenhance": 5650,
      "Ġenlightened": 5651,
      "Ġflavor": 5652,
      "Ġopportunity": 5653,
      "Ġreserves": 5654,
      "Ġshelter": 5655,
      "Ġrelaxing": 5656,
      "Ġresponse": 5657,
      "Ġmonths": 5658,
      "Ġbattery": 5659,
      "Ġcoughed": 5660,
      "Ġhyperlink": 5661,
      "Ġconducting": 5662,
      "Ġoverwhelming": 5663,
      "Ġdisconnected": 5664,
      "prrrrrrt": 5665,
      "Ġathlete": 5666,
      "Ġcrew": 5667,
      "Ġcubs": 5668,
      "Ġfoot": 5669,
      "Ġinstrument": 5670,
      "Ġgarbage": 5671,
      "Ġgripping": 5672,
      "Ġreceive": 5673,
      "Ġjaguar": 5674,
      "Ġknew": 5675,
      "Ġpursuit": 5676,
      "Ġupgraded": 5677,
      "Ġvegetable": 5678,
      "Ġfluctu": 5679,
      "Ġpoem": 5680,
      "Ġminimum": 5681,
      "currently": 5682,
      "Ġmetaphor": 5683,
      "Ġfruit": 5684,
      "Ġdefragment": 5685,
      "Ġprofessional": 5686,
      "Ġaccuracy": 5687,
      "Ġaccidentally": 5688,
      "Ġextraordinary": 5689,
      "Ġpolitely": 5690,
      "Ġauthentic": 5691,
      "Ġsuspicious": 5692,
      "Ġexhausting": 5693,
      "dynam": 5694,
      "jupiter": 5695,
      "jaguars": 5696,
      "lenose": 5697,
      "motivate": 5698,
      "machine": 5699,
      "salutations": 5700,
      "Ġadequate": 5701,
      "Ġsorry": 5702,
      "Ġsushi": 5703,
      "regrine": 5704,
      "Ġmurder": 5705,
      "Ġmimic": 5706,
      "Ġmaternal": 5707,
      "Ġcucumber": 5708,
      "Ġfossils": 5709,
      "Ġpoop": 5710,
      "Ġpushes": 5711,
      "Ġpadme": 5712,
      "Ġpenguin": 5713,
      "Ġpuddle": 5714,
      "albert": 5715,
      "Ġharsh": 5716,
      "Ġnanoseconds": 5717,
      "Ġandroid": 5718,
      "Ġeavesdropping": 5719,
      "Ġinnov": 5720,
      "leopards": 5721,
      "leonardo": 5722,
      "Ġgimme": 5723,
      "Ġgarden": 5724,
      "Ġreigning": 5725,
      "Ġregex": 5726,
      "Ġkarma": 5727,
      "Ġbecomes": 5728,
      "Ġlibraries": 5729,
      "Ġstraight": 5730,
      "Ġmockingbird": 5731,
      "Ġcategory": 5732,
      "Ġprognosis": 5733,
      "Ġchinese": 5734,
      "Ġdeprecated": 5735,
      "Ġexcluding": 5736,
      "Ġviolets": 5737,
      "Ġuninterrupted": 5738,
      "Ġunexpected": 5739,
      "Ġunadulterated": 5740,
      "Ġamusement": 5741,
      "Ġnemesis": 5742,
      "Ġencyclopedia": 5743,
      "Ġscarcity": 5744,
      "Ġpurposes": 5745,
      "Ġoverclock": 5746,
      "Ġshuffle": 5747,
      "Ġshakespeare": 5748,
      "Ġintruders": 5749,
      "Ġvehicle": 5750,
      "Ġzombie": 5751,
      "Ġapologize": 5752,
      "Ġdispenser": 5753,
      "Ġtragedy": 5754,
      "Ġgrumpy": 5755,
      "Ġvirtuoso": 5756,
      "Ġelephant": 5757,
      "Ġreluctant": 5758,
      "Ġglobal": 5759,
      "Ġdistributed": 5760,
      "Ġdefenestration": 5761,
      "Ġenergetic": 5762,
      "Ġelectronics": 5763,
      "Ġmathematical": 5764,
      "Ġparadox": 5765,
      "alexander": 5766,
      "Ġrefreshing": 5767,
      "Ġhygiene": 5768,
      "Ġairspeed": 5769,
      "Ġmadagascar": 5770,
      "13": 5771,
      "14": 5772,
      "110": 5773,
      "140": 5774,
      "130": 5775,
      "160": 5776,
      "170": 5777,
      "29": 5778,
      "200": 5779,
      "44": 5780,
      "50": 5781,
      "52": 5782,
      "84": 5783,
      "90": 5784,
      "?!": 5785,
      "IO": 5786,
      "RE": 5787,
      "TE": 5788,
      "ae": 5789,
      "aven": 5790,
      "bd": 5791,
      "bh": 5792,
      "bl": 5793,
      "bt": 5794,
      "bat": 5795,
      "bow": 5796,
      "bir": 5797,
      "bus": 5798,
      "bad": 5799,
      "beep": 5800,
      "bless": 5801,
      "buss": 5802,
      "bcats": 5803,
      "blink": 5804,
      "boreal": 5805,
      "brrrrrrrrrrrrrrrrrrrrrrrrrrrrrrrr": 5806,
      "car": 5807,
      "care": 5808,
      "creat": 5809,
      "cup": 5810,
      "cock": 5811,
      "cook": 5812,
      "cons": 5813,
      "corn": 5814,
      "cils": 5815,
      "cript": 5816,
      "cceed": 5817,
      "cribe": 5818,
      "cinated": 5819,
      "cumul": 5820,
      "dm": 5821,
      "dt": 5822,
      "dan": 5823,
      "days": 5824,
      "dream": 5825,
      "dds": 5826,
      "dium": 5827,
      "direct": 5828,
      "ditions": 5829,
      "ees": 5830,
      "emp": 5831,
      "eping": 5832,
      "ext": 5833,
      "fb": 5834,
      "fu": 5835,
      "fan": 5836,
      "fare": 5837,
      "fro": 5838,
      "fus": 5839,
      "from": 5840,
      "fant": 5841,
      "find": 5842,
      "fection": 5843,
      "frame": 5844,
      "fomo": 5845,
      "gf": 5846,
      "gt": 5847,
      "gst": 5848,
      "gent": 5849,
      "gas": 5850,
      "gum": 5851,
      "gul": 5852,
      "gir": 5853,
      "great": 5854,
      "gos": 5855,
      "gling": 5856,
      "ganda": 5857,
      "gatekeep": 5858,
      "hf": 5859,
      "hus": 5860,
      "hood": 5861,
      "ham": 5862,
      "hilarious": 5863,
      "hale": 5864,
      "horized": 5865,
      "hbd": 5866,
      "ivor": 5867,
      "iop": 5868,
      "iastic": 5869,
      "iological": 5870,
      "ja": 5871,
      "jc": 5872,
      "js": 5873,
      "kit": 5874,
      "kill": 5875,
      "lin": 5876,
      "lar": 5877,
      "lic": 5878,
      "lle": 5879,
      "las": 5880,
      "lad": 5881,
      "lol": 5882,
      "live": 5883,
      "lone": 5884,
      "laugh": 5885,
      "liness": 5886,
      "lium": 5887,
      "lma": 5888,
      "lantic": 5889,
      "lished": 5890,
      "lboss": 5891,
      "med": 5892,
      "mur": 5893,
      "mood": 5894,
      "might": 5895,
      "mind": 5896,
      "more": 5897,
      "mies": 5898,
      "mers": 5899,
      "miss": 5900,
      "matic": 5901,
      "mail": 5902,
      "mfort": 5903,
      "mestic": 5904,
      "nm": 5905,
      "np": 5906,
      "nv": 5907,
      "net": 5908,
      "nder": 5909,
      "nies": 5910,
      "ners": 5911,
      "name": 5912,
      "nually": 5913,
      "nium": 5914,
      "oi": 5915,
      "oj": 5916,
      "oal": 5917,
      "oly": 5918,
      "over": 5919,
      "omp": 5920,
      "oard": 5921,
      "omy": 5922,
      "occ": 5923,
      "oice": 5924,
      "oho": 5925,
      "oxygen": 5926,
      "octop": 5927,
      "ograph": 5928,
      "odynam": 5929,
      "por": 5930,
      "pun": 5931,
      "pus": 5932,
      "pol": 5933,
      "pical": 5934,
      "paw": 5935,
      "pick": 5936,
      "pient": 5937,
      "pines": 5938,
      "pret": 5939,
      "pog": 5940,
      "rf": 5941,
      "rum": 5942,
      "rough": 5943,
      "rish": 5944,
      "rict": 5945,
      "rint": 5946,
      "rates": 5947,
      "raph": 5948,
      "sun": 5949,
      "sum": 5950,
      "sck": 5951,
      "sse": 5952,
      "squ": 5953,
      "sigh": 5954,
      "sup": 5955,
      "sci": 5956,
      "sist": 5957,
      "sass": 5958,
      "same": 5959,
      "spl": 5960,
      "sigma": 5961,
      "tf": 5962,
      "ti": 5963,
      "tu": 5964,
      "tx": 5965,
      "too": 5966,
      "tter": 5967,
      "treat": 5968,
      "top": 5969,
      "tty": 5970,
      "txt": 5971,
      "tiness": 5972,
      "tmi": 5973,
      "tigers": 5974,
      "tbh": 5975,
      "uine": 5976,
      "uated": 5977,
      "ucle": 5978,
      "van": 5979,
      "vated": 5980,
      "virt": 5981,
      "vatic": 5982,
      "vocal": 5983,
      "vibe": 5984,
      "wd": 5985,
      "wal": 5986,
      "wow": 5987,
      "wich": 5988,
      "wdy": 5989,
      "write": 5990,
      "wtf": 5991,
      "ya": 5992,
      "yb": 5993,
      "yi": 5994,
      "yw": 5995,
      "yal": 5996,
      "ype": 5997,
      "yss": 5998,
      "yware": 5999,
      "zer": 6000,
      "zan": 6001,
      "zen": 6002,
      "zip": 6003,
      "Ġver": 6004,
      "Ġut": 6005,
      "Ġverse": 6006,
      "Ġtv": 6007,
      "Ġtan": 6008,
      "Ġten": 6009,
      "Ġtar": 6010,
      "Ġtough": 6011,
      "Ġtss": 6012,
      "Ġtong": 6013,
      "Ġtang": 6014,
      "Ġtown": 6015,
      "Ġtude": 6016,
      "Ġtoward": 6017,
      "Ġaer": 6018,
      "Ġara": 6019,
      "Ġado": 6020,
      "Ġamph": 6021,
      "Ġaria": 6022,
      "Ġivate": 6023,
      "Ġicons": 6024,
      "Ġille": 6025,
      "Ġsen": 6026,
      "Ġsig": 6027,
      "Ġsch": 6028,
      "Ġsate": 6029,
      "Ġsri": 6030,
      "Ġsill": 6031,
      "Ġsiz": 6032,
      "Ġsink": 6033,
      "Ġsection": 6034,
      "Ġsix": 6035,
      "Ġsigma": 6036,
      "oul": 6037,
      "atoo": 6038,
      "atra": 6039,
      "atted": 6040,
      "atile": 6041,
      "atience": 6042,
      "atically": 6043,
      "atible": 6044,
      "heit": 6045,
      "hero": 6046,
      "heating": 6047,
      "helium": 6048,
      "rees": 6049,
      "Ġmir": 6050,
      "Ġmant": 6051,
      "Ġmend": 6052,
      "Ġmile": 6053,
      "Ġmars": 6054,
      "Ġmrow": 6055,
      "Ġmittens": 6056,
      "inc": 6057,
      "ining": 6058,
      "ined": 6059,
      "inct": 6060,
      "inth": 6061,
      "inside": 6062,
      "Ġyor": 6063,
      "Ġyen": 6064,
      "Ġyell": 6065,
      "Ġyog": 6066,
      "Ġcit": 6067,
      "Ġcro": 6068,
      "Ġcough": 6069,
      "Ġciv": 6070,
      "Ġcame": 6071,
      "Ġcaut": 6072,
      "Ġcach": 6073,
      "Ġcel": 6074,
      "Ġcels": 6075,
      "Ġcoward": 6076,
      "Ġcumul": 6077,
      "Ġcached": 6078,
      "era": 6079,
      "erally": 6080,
      "eria": 6081,
      "ermin": 6082,
      "Ġfro": 6083,
      "Ġful": 6084,
      "Ġfate": 6085,
      "Ġfive": 6086,
      "Ġfist": 6087,
      "Ġfather": 6088,
      "Ġfib": 6089,
      "Ġfusion": 6090,
      "Ġffb": 6091,
      "Ġfsck": 6092,
      "Ġfyi": 6093,
      "Ġoly": 6094,
      "Ġody": 6095,
      "Ġotocol": 6096,
      "Ġodds": 6097,
      "Ġosci": 6098,
      "Ġotter": 6099,
      "anion": 6100,
      "anch": 6101,
      "anse": 6102,
      "anical": 6103,
      "anks": 6104,
      "answ": 6105,
      "anium": 6106,
      "annel": 6107,
      "anmar": 6108,
      "anistan": 6109,
      "Ġwoo": 6110,
      "Ġwood": 6111,
      "Ġwitty": 6112,
      "Ġwidth": 6113,
      "Ġwoman": 6114,
      "Ġpin": 6115,
      "Ġpir": 6116,
      "Ġpess": 6117,
      "Ġpand": 6118,
      "Ġpant": 6119,
      "Ġpac": 6120,
      "Ġpage": 6121,
      "Ġpens": 6122,
      "Ġpars": 6123,
      "Ġpaus": 6124,
      "Ġpak": 6125,
      "Ġpub": 6126,
      "Ġpier": 6127,
      "Ġppp": 6128,
      "Ġpanda": 6129,
      "Ġpizz": 6130,
      "Ġber": 6131,
      "Ġbun": 6132,
      "Ġbam": 6133,
      "Ġbop": 6134,
      "Ġbile": 6135,
      "Ġbak": 6136,
      "Ġbzz": 6137,
      "Ġbash": 6138,
      "Ġbumble": 6139,
      "Ġbrie": 6140,
      "Ġboreal": 6141,
      "Ġbiological": 6142,
      "ingy": 6143,
      "ita": 6144,
      "itst": 6145,
      "itivity": 6146,
      "orous": 6147,
      "orge": 6148,
      "orill": 6149,
      "orough": 6150,
      "esium": 6151,
      "ening": 6152,
      "enci": 6153,
      "enough": 6154,
      "enland": 6155,
      "enstein": 6156,
      "ennium": 6157,
      "enya": 6158,
      "Ġles": 6159,
      "Ġled": 6160,
      "Ġlun": 6161,
      "Ġlab": 6162,
      "Ġlam": 6163,
      "Ġlos": 6164,
      "Ġlink": 6165,
      "Ġlull": 6166,
      "Ġlady": 6167,
      "Ġloss": 6168,
      "Ġlank": 6169,
      "Ġlunch": 6170,
      "Ġdc": 6171,
      "Ġder": 6172,
      "Ġdent": 6173,
      "Ġdum": 6174,
      "Ġddo": 6175,
      "Ġdict": 6176,
      "Ġdread": 6177,
      "Ġdental": 6178,
      "Ġdabra": 6179,
      "Ġdns": 6180,
      "Ġdinger": 6181,
      "Ġdusk": 6182,
      "onic": 6183,
      "onac": 6184,
      "onounced": 6185,
      "onimbus": 6186,
      "Ġist": 6187,
      "also": 6188,
      "alone": 6189,
      "alert": 6190,
      "Ġanna": 6191,
      "Ġannually": 6192,
      "Ġhz": 6193,
      "Ġhar": 6194,
      "Ġhot": 6195,
      "Ġhint": 6196,
      "Ġhanging": 6197,
      "arwh": 6198,
      "arment": 6199,
      "arks": 6200,
      "argum": 6201,
      "Ġnon": 6202,
      "Ġnation": 6203,
      "Ġnone": 6204,
      "Ġnile": 6205,
      "Ġnick": 6206,
      "Ġnib": 6207,
      "Ġnuzz": 6208,
      "Ġniger": 6209,
      "Ġyours": 6210,
      "eds": 6211,
      "eding": 6212,
      "Ġtoes": 6213,
      "Ġtotal": 6214,
      "Ġtomor": 6215,
      "stro": 6216,
      "stall": 6217,
      "station": 6218,
      "still": 6219,
      "step": 6220,
      "stract": 6221,
      "stret": 6222,
      "stains": 6223,
      "stfu": 6224,
      "icill": 6225,
      "icting": 6226,
      "icial": 6227,
      "Ġeth": 6228,
      "Ġease": 6229,
      "Ġeasy": 6230,
      "Ġethern": 6231,
      "Ġepo": 6232,
      "Ġegos": 6233,
      "Ġincon": 6234,
      "Ġinner": 6235,
      "Ġinput": 6236,
      "une": 6237,
      "unt": 6238,
      "unks": 6239,
      "until": 6240,
      "unex": 6241,
      "ungle": 6242,
      "Ġitaly": 6243,
      "lement": 6244,
      "lyte": 6245,
      "lyfish": 6246,
      "arely": 6247,
      "Ġgur": 6248,
      "Ġgree": 6249,
      "Ġgust": 6250,
      "Ġgently": 6251,
      "Ġgiver": 6252,
      "Ġgrrr": 6253,
      "Ġghan": 6254,
      "Ġgerm": 6255,
      "Ġgatekeep": 6256,
      "Ġgpu": 6257,
      "Ġgzip": 6258,
      "eting": 6259,
      "roll": 6260,
      "roke": 6261,
      "roach": 6262,
      "rofl": 6263,
      "roxim": 6264,
      "rogen": 6265,
      "rolyte": 6266,
      "ller": 6267,
      "lled": 6268,
      "llite": 6269,
      "llate": 6270,
      "ury": 6271,
      "urous": 6272,
      "urance": 6273,
      "entless": 6274,
      "isite": 6275,
      "isia": 6276,
      "aping": 6277,
      "aped": 6278,
      "apore": 6279,
      "verb": 6280,
      "verned": 6281,
      "ask": 6282,
      "asm": 6283,
      "asap": 6284,
      "asant": 6285,
      "Ġreun": 6286,
      "Ġrect": 6287,
      "Ġreck": 6288,
      "Ġrepro": 6289,
      "Ġrefer": 6290,
      "Ġremo": 6291,
      "Ġrechar": 6292,
      "Ġreaches": 6293,
      "Ġrender": 6294,
      "Ġmyanmar": 6295,
      "Ġmeh": 6296,
      "Ġmech": 6297,
      "Ġmeant": 6298,
      "Ġmeeeeow": 6299,
      "Ġmeasure": 6300,
      "ooth": 6301,
      "their": 6302,
      "ctivity": 6303,
      "ctuated": 6304,
      "Ġkaren": 6305,
      "Ġkangaroo": 6306,
      "Ġkenya": 6307,
      "Ġfavor": 6308,
      "Ġfaith": 6309,
      "Ġfaci": 6310,
      "Ġfaced": 6311,
      "Ġfacing": 6312,
      "meo": 6313,
      "mered": 6314,
      "meerk": 6315,
      "Ġonline": 6316,
      "igorous": 6317,
      "Ġthump": 6318,
      "Ġthail": 6319,
      "Ġthorough": 6320,
      "uminum": 6321,
      "Ġbell": 6322,
      "Ġbeach": 6323,
      "Ġbefriend": 6324,
      "Ġliar": 6325,
      "Ġlily": 6326,
      "Ġlived": 6327,
      "Ġlimbs": 6328,
      "kel": 6329,
      "Ġforger": 6330,
      "Ġcock": 6331,
      "Ġcomb": 6332,
      "Ġcovered": 6333,
      "Ġcobal": 6334,
      "otype": 6335,
      "uts": 6336,
      "utic": 6337,
      "utally": 6338,
      "utdown": 6339,
      "Ġsting": 6340,
      "Ġstock": 6341,
      "Ġstick": 6342,
      "Ġsteep": 6343,
      "Ġstaff": 6344,
      "Ġstunning": 6345,
      "Ġstomp": 6346,
      "Ġstroke": 6347,
      "rait": 6348,
      "rage": 6349,
      "ules": 6350,
      "ulting": 6351,
      "uliet": 6352,
      "Ġhaik": 6353,
      "iration": 6354,
      "usks": 6355,
      "Ġdomestic": 6356,
      "Ġdozen": 6357,
      "imo": 6358,
      "iment": 6359,
      "imist": 6360,
      "imho": 6361,
      "imbab": 6362,
      "iminate": 6363,
      "cks": 6364,
      "cked": 6365,
      "Ġnapper": 6366,
      "Ġjungle": 6367,
      "Ġjuliet": 6368,
      "chas": 6369,
      "idc": 6370,
      "idk": 6371,
      "ids": 6372,
      "idst": 6373,
      "idae": 6374,
      "ilized": 6375,
      "term": 6376,
      "Ġsock": 6377,
      "Ġsomal": 6378,
      "Ġsodium": 6379,
      "Ġmodule": 6380,
      "Ġmothers": 6381,
      "Ġcatlif": 6382,
      "Ġcatboss": 6383,
      "esty": 6384,
      "esting": 6385,
      "estial": 6386,
      "dogs": 6387,
      "eech": 6388,
      "Ġaren": 6389,
      "sea": 6390,
      "sequences": 6391,
      "seller": 6392,
      "thick": 6393,
      "thaf": 6394,
      "through": 6395,
      "thanks": 6396,
      "Ġproject": 6397,
      "Ġproverb": 6398,
      "Ġalt": 6399,
      "Ġalong": 6400,
      "Ġalien": 6401,
      "Ġalright": 6402,
      "Ġallel": 6403,
      "Ġalmight": 6404,
      "Ġaluminum": 6405,
      "Ġchrom": 6406,
      "Ġchain": 6407,
      "Ġchill": 6408,
      "Ġchart": 6409,
      "Ġchip": 6410,
      "Ġchlor": 6411,
      "Ġchased": 6412,
      "Ġchances": 6413,
      "Ġchorus": 6414,
      "Ġchirp": 6415,
      "Ġchannel": 6416,
      "Ġchunks": 6417,
      "Ġjugg": 6418,
      "Ġhumming": 6419,
      "Ġcanad": 6420,
      "quence": 6421,
      "quire": 6422,
      "quiet": 6423,
      "quisite": 6424,
      "Ġrough": 6425,
      "Ġrich": 6426,
      "Ġrice": 6427,
      "Ġrust": 6428,
      "Ġrush": 6429,
      "Ġrizz": 6430,
      "Ġrtx": 6431,
      "Ġrigorous": 6432,
      "ablished": 6433,
      "Ġdecent": 6434,
      "Ġdebut": 6435,
      "Ġdepos": 6436,
      "cano": 6437,
      "Ġexotic": 6438,
      "Ġexhi": 6439,
      "Ġexhale": 6440,
      "Ġexquisite": 6441,
      "Ġheap": 6442,
      "Ġ212": 6443,
      "ecta": 6444,
      "george": 6445,
      "ateurs": 6446,
      "Ġconverse": 6447,
      "Ġconcise": 6448,
      "Ġconditions": 6449,
      "Ġconsequences": 6450,
      "Ġknot": 6451,
      "ifecta": 6452,
      "Ġvice": 6453,
      "Ġviet": 6454,
      "Ġvgf": 6455,
      "Ġvoice": 6456,
      "Ġworry": 6457,
      "upial": 6458,
      "Ġatte": 6459,
      "Ġatlantic": 6460,
      "ama": 6461,
      "ambia": 6462,
      "amole": 6463,
      "Ġunaut": 6464,
      "Ġunden": 6465,
      "Ġunint": 6466,
      "Ġunche": 6467,
      "Ġunne": 6468,
      "Ġundiv": 6469,
      "Ġunav": 6470,
      "Ġunmat": 6471,
      "Ġungul": 6472,
      "ounter": 6473,
      "osph": 6474,
      "Ġprevious": 6475,
      "mpic": 6476,
      "rivers": 6477,
      "Ġperse": 6478,
      "Ġperils": 6479,
      "Ġamusing": 6480,
      "Ġamused": 6481,
      "Ġamidst": 6482,
      "Ġamateurs": 6483,
      "Ġnepal": 6484,
      "Ġbutler": 6485,
      "whis": 6486,
      "whimsical": 6487,
      "ola": 6488,
      "olved": 6489,
      "oluted": 6490,
      "Ġspite": 6491,
      "Ġspac": 6492,
      "Ġspread": 6493,
      "Ġspins": 6494,
      "Ġspider": 6495,
      "Ġspyware": 6496,
      "Ġspeech": 6497,
      "ghost": 6498,
      "ghanistan": 6499,
      "Ġmanners": 6500,
      "Ġaspire": 6501,
      "Ġ31": 6502,
      "Ġable": 6503,
      "Ġabort": 6504,
      "Ġabom": 6505,
      "Ġabsur": 6506,
      "Ġaboard": 6507,
      "Ġabyss": 6508,
      "Ġabstract": 6509,
      "Ġnoted": 6510,
      "Ġtips": 6511,
      "ists": 6512,
      "ister": 6513,
      "istical": 6514,
      "Ġquit": 6515,
      "Ġquitting": 6516,
      "Ġclan": 6517,
      "Ġclust": 6518,
      "Ġclones": 6519,
      "Ġclarity": 6520,
      "Ġclingy": 6521,
      "Ġserving": 6522,
      "Ġseen": 6523,
      "Ġseas": 6524,
      "Ġseren": 6525,
      "Ġseals": 6526,
      "Ġselect": 6527,
      "Ġsequences": 6528,
      "Ġseeds": 6529,
      "Ġsequence": 6530,
      "Ġscream": 6531,
      "Ġscaven": 6532,
      "Ġscroll": 6533,
      "Ġornam": 6534,
      "ends": 6535,
      "ishing": 6536,
      "Ġovers": 6537,
      "Ġovernight": 6538,
      "Ġovergra": 6539,
      "Ġoversee": 6540,
      "Ġoverload": 6541,
      "Ġoverheating": 6542,
      "berries": 6543,
      "Ġtreaty": 6544,
      "Ġloa": 6545,
      "Ġload": 6546,
      "Ġloves": 6547,
      "Ġloving": 6548,
      "Ġloyalty": 6549,
      "Ġlogo": 6550,
      "Ġloyal": 6551,
      "opping": 6552,
      "soon": 6553,
      "soft": 6554,
      "Ġshr": 6555,
      "Ġshoo": 6556,
      "Ġshame": 6557,
      "Ġshhhhh": 6558,
      "Ġshallow": 6559,
      "Ġsharper": 6560,
      "Ġshutdown": 6561,
      "Ġallowing": 6562,
      "Ġgoodbye": 6563,
      "aysia": 6564,
      "assium": 6565,
      "aster": 6566,
      "ption": 6567,
      "Ġknows": 6568,
      "Ġbliss": 6569,
      "Ġblown": 6570,
      "Ġblush": 6571,
      "Ġarc": 6572,
      "Ġarboreal": 6573,
      "Ġargent": 6574,
      "being": 6575,
      "Ġcurls": 6576,
      "Ġcaptain": 6577,
      "Ġcapita": 6578,
      "Ġintric": 6579,
      "Ġintense": 6580,
      "Ġintended": 6581,
      "Ġusa": 6582,
      "Ġ101": 6583,
      "Ġ1011": 6584,
      "Ġupd": 6585,
      "Ġupside": 6586,
      "Ġupward": 6587,
      "Ġdign": 6588,
      "ippines": 6589,
      "Ġnose": 6590,
      "Ġnovel": 6591,
      "Ġnostal": 6592,
      "ivation": 6593,
      "aced": 6594,
      "acity": 6595,
      "acles": 6596,
      "acamole": 6597,
      "Ġroses": 6598,
      "Ġroasts": 6599,
      "Ġromeo": 6600,
      "Ġcherish": 6601,
      "Ġjudger": 6602,
      "arya": 6603,
      "Ġwhose": 6604,
      "fear": 6605,
      "feated": 6606,
      "feline": 6607,
      "ference": 6608,
      "females": 6609,
      "feres": 6610,
      "Ġenthus": 6611,
      "Ġexposed": 6612,
      "Ġexpanse": 6613,
      "Ġfunnel": 6614,
      "Ġflat": 6615,
      "Ġflow": 6616,
      "Ġflight": 6617,
      "Ġflowers": 6618,
      "Ġflatter": 6619,
      "Ġflicks": 6620,
      "Ġmeowmeow": 6621,
      "away": 6622,
      "awesome": 6623,
      "Ġbod": 6624,
      "Ġbold": 6625,
      "Ġbother": 6626,
      "Ġboasts": 6627,
      "oney": 6628,
      "Ġ010": 6629,
      "Ġ52": 6630,
      "versial": 6631,
      "anged": 6632,
      "angut": 6633,
      "angol": 6634,
      "Ġgods": 6635,
      "Ġgoverned": 6636,
      "Ġsucceed": 6637,
      "Ġsustains": 6638,
      "Ġ88": 6639,
      "Ġadul": 6640,
      "Ġadmin": 6641,
      "Ġaddict": 6642,
      "Ġsnakes": 6643,
      "Ġ63": 6644,
      "Ġ66": 6645,
      "Ġ74": 6646,
      "Ġ77": 6647,
      "Ġ792": 6648,
      "Ġtaxes": 6649,
      "Ġtactic": 6650,
      "Ġtrifecta": 6651,
      "izens": 6652,
      "lfriend": 6653,
      "Ġsmoke": 6654,
      "Ġsmooth": 6655,
      "Ġcompile": 6656,
      "Ġcomposed": 6657,
      "Ġcompatible": 6658,
      "Ġcompanion": 6659,
      "Ġfurther": 6660,
      "Ġcommits": 6661,
      "Ġgenetic": 6662,
      "Ġgenuine": 6663,
      "Ġ91": 6664,
      "Ġtyped": 6665,
      "ductive": 6666,
      "Ġoffline": 6667,
      "eprint": 6668,
      "Ġsuns": 6669,
      "Ġchatter": 6670,
      "Ġchattering": 6671,
      "coin": 6672,
      "coffee": 6673,
      "Ġzen": 6674,
      "Ġzinc": 6675,
      "Ġzimbab": 6676,
      "Ġzambia": 6677,
      "gger": 6678,
      "ensis": 6679,
      "Ġrealizing": 6680,
      "Ġpoke": 6681,
      "Ġpoetic": 6682,
      "Ġsassiest": 6683,
      "Ġhash": 6684,
      "Ġplayed": 6685,
      "Ġplayground": 6686,
      "acts": 6687,
      "activity": 6688,
      "Ġcalling": 6689,
      "Ġ2000": 6690,
      "Ġworlds": 6691,
      "Ġworldvie": 6692,
      "Ġoutgo": 6693,
      "Ġthemsel": 6694,
      "Ġterical": 6695,
      "omg": 6696,
      "omatic": 6697,
      "udi": 6698,
      "Ġnumbering": 6699,
      "apped": 6700,
      "approxim": 6701,
      "Ġwhereas": 6702,
      "agers": 6703,
      "agraph": 6704,
      "Ġstride": 6705,
      "Ġstrict": 6706,
      "shhh": 6707,
      "shaking": 6708,
      "shoe": 6709,
      "sharks": 6710,
      "Ġbetting": 6711,
      "Ġdesp": 6712,
      "Ġ118": 6713,
      "heric": 6714,
      "inkly": 6715,
      "velength": 6716,
      "Ġdisplay": 6717,
      "Ġdisaster": 6718,
      "Ġlifelong": 6719,
      "Ġentering": 6720,
      "cessary": 6721,
      "Ġperegrine": 6722,
      "aka": 6723,
      "zzt": 6724,
      "Ġphd": 6725,
      "Ġphob": 6726,
      "Ġphosph": 6727,
      "Ġkeystro": 6728,
      "Ġskin": 6729,
      "Ġskip": 6730,
      "Ġskibidi": 6731,
      "Ġinvention": 6732,
      "Ġjoin": 6733,
      "Ġnewton": 6734,
      "Ġscritches": 6735,
      "Ġunderworld": 6736,
      "Ġunderwater": 6737,
      "Ġtraum": 6738,
      "Ġgrid": 6739,
      "Ġgrunt": 6740,
      "Ġconspi": 6741,
      "bobcats": 6742,
      "venile": 6743,
      "venience": 6744,
      "Ġacts": 6745,
      "Ġaction": 6746,
      "Ġresil": 6747,
      "Ġreside": 6748,
      "Ġsupper": 6749,
      "Ġplanned": 6750,
      "Ġraid": 6751,
      "Ġtalks": 6752,
      "Ġattract": 6753,
      "Ġuseless": 6754,
      "Ġbrute": 6755,
      "Ġbranch": 6756,
      "Ġbrutally": 6757,
      "Ġpreying": 6758,
      "Ġbelow": 6759,
      "Ġintoxic": 6760,
      "Ġ1000": 6761,
      "Ġslang": 6762,
      "Ġslice": 6763,
      "Ġslower": 6764,
      "Ġslob": 6765,
      "Ġinfinity": 6766,
      "Ġinflu": 6767,
      "Ġsolo": 6768,
      "Ġsolves": 6769,
      "Ġsolutions": 6770,
      "Ġgeneration": 6771,
      "Ġafghanistan": 6772,
      "Ġsymbols": 6773,
      "Ġagrees": 6774,
      "Ġimpending": 6775,
      "Ġimplement": 6776,
      "Ġelevated": 6777,
      "ignore": 6778,
      "ignified": 6779,
      "Ġcontact": 6780,
      "Ġcontribution": 6781,
      "ialize": 6782,
      "ictly": 6783,
      "Ġsimmered": 6784,
      "Ġcris": 6785,
      "Ġcrush": 6786,
      "Ġcrickets": 6787,
      "Ġcrumbs": 6788,
      "Ġcrinkly": 6789,
      "Ġprinter": 6790,
      "Ġprinci": 6791,
      "Ġpronounced": 6792,
      "plored": 6793,
      "Ġinterns": 6794,
      "Ġbeings": 6795,
      "Ġkeyboards": 6796,
      "Ġacute": 6797,
      "Ġacquire": 6798,
      "Ġoccurs": 6799,
      "ocate": 6800,
      "Ġsafer": 6801,
      "Ġsaudi": 6802,
      "Ġoptions": 6803,
      "Ġbackward": 6804,
      "Ġbackground": 6805,
      "Ġworkout": 6806,
      "Ġsheer": 6807,
      "Ġpartially": 6808,
      "Ġgrade": 6809,
      "Ġgraham": 6810,
      "Ġghosted": 6811,
      "cedure": 6812,
      "Ġbravery": 6813,
      "intment": 6814,
      "Ġwanted": 6815,
      "Ġending": 6816,
      "Ġcleaning": 6817,
      "Ġawe": 6818,
      "ressive": 6819,
      "Ġbreeding": 6820,
      "Ġbestseller": 6821,
      "Ġemits": 6822,
      "Ġemoj": 6823,
      "Ġsecrecy": 6824,
      "built": 6825,
      "working": 6826,
      "Ġedition": 6827,
      "Ġfoe": 6828,
      "Ġfoxes": 6829,
      "Ġfolder": 6830,
      "Ġmisunderst": 6831,
      "Ġinterface": 6832,
      "Ġinterbre": 6833,
      "Ġinterferes": 6834,
      "Ġlisted": 6835,
      "Ġcoming": 6836,
      "Ġcomments": 6837,
      "Ġcomfy": 6838,
      "ilyt": 6839,
      "Ġloose": 6840,
      "Ġformally": 6841,
      "Ġformatted": 6842,
      "Ġexisted": 6843,
      "Ġexistential": 6844,
      "Ġbelieved": 6845,
      "Ġowe": 6846,
      "Ġowls": 6847,
      "entionally": 6848,
      "Ġrelentless": 6849,
      "Ġsubmar": 6850,
      "Ġsweat": 6851,
      "cellent": 6852,
      "Ġboxy": 6853,
      "rican": 6854,
      "ricted": 6855,
      "Ġmessaging": 6856,
      "Ġburning": 6857,
      "Ġkeeper": 6858,
      "Ġcolorful": 6859,
      "curl": 6860,
      "haha": 6861,
      "iodt": 6862,
      "ioactivity": 6863,
      "nost": 6864,
      "Ġsinging": 6865,
      "Ġempire": 6866,
      "Ġemptiness": 6867,
      "Ġglance": 6868,
      "Ġglands": 6869,
      "Ġglowing": 6870,
      "Ġglitches": 6871,
      "Ġdebug": 6872,
      "Ġpreser": 6873,
      "Ġpresents": 6874,
      "Ġprescript": 6875,
      "chen": 6876,
      "cheer": 6877,
      "Ġtribe": 6878,
      "Ġtriangle": 6879,
      "Ġextinct": 6880,
      "Ġvisually": 6881,
      "Ġvisible": 6882,
      "Ġmeta": 6883,
      "Ġmeter": 6884,
      "Ġhissing": 6885,
      "Ġproduction": 6886,
      "Ġproduced": 6887,
      "Ġproductivity": 6888,
      "Ġalgeria": 6889,
      "Ġuntilitst": 6890,
      "Ġfunctionally": 6891,
      "Ġunderstands": 6892,
      "Ġafterlife": 6893,
      "Ġlanguages": 6894,
      "periodt": 6895,
      "Ġwrapped": 6896,
      "Ġlights": 6897,
      "Ġdots": 6898,
      "Ġ121": 6899,
      "Ġblackmail": 6900,
      "Ġsuperhero": 6901,
      "Ġtalents": 6902,
      "Ġbush": 6903,
      "Ġbushy": 6904,
      "Ġvacation": 6905,
      "Ġvaccinated": 6906,
      "Ġcommunity": 6907,
      "Ġdeserialize": 6908,
      "Ġoptimally": 6909,
      "Ġoptimistic": 6910,
      "ibian": 6911,
      "Ġmonstr": 6912,
      "Ġmondays": 6913,
      "Ġwaves": 6914,
      "Ġwavelength": 6915,
      "Ġdistant": 6916,
      "Ġdistantly": 6917,
      "Ġdistribution": 6918,
      "Ġdistrict": 6919,
      "Ġdeeply": 6920,
      "Ġquestioning": 6921,
      "Ġsilly": 6922,
      "Ġsilver": 6923,
      "Ġlands": 6924,
      "Ġlandmar": 6925,
      "Ġprototype": 6926,
      "Ġsaying": 6927,
      "Ġmighty": 6928,
      "ornia": 6929,
      "Ġdownward": 6930,
      "apeutic": 6931,
      "Ġretreat": 6932,
      "Ġretrie": 6933,
      "Ġdefine": 6934,
      "Ġshouldn": 6935,
      "ellyfish": 6936,
      "Ġavid": 6937,
      "Ġcounter": 6938,
      "Ġsoftness": 6939,
      "Ġsongs": 6940,
      "Ġfounder": 6941,
      "Ġdetail": 6942,
      "Ġdetermin": 6943,
      "Ġdangles": 6944,
      "Ġ150": 6945,
      "Ġpercentage": 6946,
      "Ġfeeder": 6947,
      "Ġfeedback": 6948,
      "Ġtempting": 6949,
      "rrrrrrrrr": 6950,
      "Ġhats": 6951,
      "Ġhates": 6952,
      "Ġwinks": 6953,
      "Ġbooted": 6954,
      "engal": 6955,
      "Ġlowers": 6956,
      "Ġprogress": 6957,
      "Ġbrains": 6958,
      "hisssss": 6959,
      "Ġmiocene": 6960,
      "Ġbites": 6961,
      "Ġbitcoin": 6962,
      "Ġharder": 6963,
      "Ġcatching": 6964,
      "Ġconfigure": 6965,
      "Ġconfused": 6966,
      "Ġconfigur": 6967,
      "Ġconfidence": 6968,
      "Ġleaking": 6969,
      "Ġleaks": 6970,
      "Ġapprove": 6971,
      "Ġdevelopers": 6972,
      "Ġiran": 6973,
      "Ġcentury": 6974,
      "Ġcircuit": 6975,
      "Ġdestiny": 6976,
      "onym": 6977,
      "Ġ180": 6978,
      "Ġcomputing": 6979,
      "Ġcomputers": 6980,
      "Ġcomputations": 6981,
      "Ġstrongly": 6982,
      "Ġdelicate": 6983,
      "Ġimagine": 6984,
      "Ġimagination": 6985,
      "portation": 6986,
      "Ġwisely": 6987,
      "Ġnetti": 6988,
      "Ġevil": 6989,
      "Ġevolved": 6990,
      "Ġregrow": 6991,
      "Ġregular": 6992,
      "eeeeesh": 6993,
      "Ġvillagers": 6994,
      "Ġendlessly": 6995,
      "Ġeffectively": 6996,
      "closed": 6997,
      "climb": 6998,
      "Ġcoral": 6999,
      "Ġpouncing": 7000,
      "Ġfluffiest": 7001,
      "Ġtextual": 7002,
      "Ġtrainable": 7003,
      "Ġslowing": 7004,
      "Ġelectrolyte": 7005,
      "Ġprotecting": 7006,
      "Ġtube": 7007,
      "Ġcarpet": 7008,
      "Ġfutile": 7009,
      "Ġclassification": 7010,
      "Ġinvolve": 7011,
      "Ġcalculations": 7012,
      "Ġfiner": 7013,
      "Ġfinished": 7014,
      "Ġdrives": 7015,
      "Ġstatement": 7016,
      "Ġencore": 7017,
      "Ġencroach": 7018,
      "Ġencounter": 7019,
      "Ġenemies": 7020,
      "Ġcomplexity": 7021,
      "Ġrebooting": 7022,
      "digital": 7023,
      "hydrogen": 7024,
      "Ġmorocc": 7025,
      "Ġmotivation": 7026,
      "Ġbadly": 7027,
      "Ġequation": 7028,
      "Ġmagnetic": 7029,
      "Ġmagnesium": 7030,
      "Ġdepends": 7031,
      "Ġdependency": 7032,
      "Ġunlocks": 7033,
      "Ġscheme": 7034,
      "Ġdeliciously": 7035,
      "ailable": 7036,
      "Ġ402": 7037,
      "Ġbringer": 7038,
      "Ġbringing": 7039,
      "Ġcontrolling": 7040,
      "Ġcontroversial": 7041,
      "Ġproblemo": 7042,
      "solve": 7043,
      "solved": 7044,
      "Ġimmunity": 7045,
      "Ġsignific": 7046,
      "Ġsignals": 7047,
      "Ġdecis": 7048,
      "Ġdecided": 7049,
      "Ġrocky": 7050,
      "Ġswimmer": 7051,
      "Ġswimmers": 7052,
      "101": 7053,
      "butting": 7054,
      "chatbot": 7055,
      "Ġsensation": 7056,
      "Ġmisses": 7057,
      "Ġfiled": 7058,
      "Ġparis": 7059,
      "Ġparas": 7060,
      "Ġparse": 7061,
      "Ġparrots": 7062,
      "Ġparagraph": 7063,
      "Ġpasswd": 7064,
      "Ġbathroom": 7065,
      "Ġdarker": 7066,
      "Ġguess": 7067,
      "Ġguide": 7068,
      "Ġguarant": 7069,
      "Ġguette": 7070,
      "Ġguern": 7071,
      "Ġguacamole": 7072,
      "Ġreplace": 7073,
      "Ġzeroes": 7074,
      "Ġphilippines": 7075,
      "Ġaccepts": 7076,
      "brb": 7077,
      "bras": 7078,
      "ofc": 7079,
      "Ġsentient": 7080,
      "inspire": 7081,
      "Ġhonor": 7082,
      "Ġresting": 7083,
      "Ġrestful": 7084,
      "Ġrestaur": 7085,
      "Ġrestricted": 7086,
      "Ġdevice": 7087,
      "Ġdevices": 7088,
      "never": 7089,
      "neural": 7090,
      "Ġsaturday": 7091,
      "Ġwinds": 7092,
      "Ġanti": 7093,
      "Ġstatistical": 7094,
      "Ġ1984": 7095,
      "Ġherding": 7096,
      "Ġcomplain": 7097,
      "Ġcompliment": 7098,
      "Ġprogrammer": 7099,
      "Ġmagnificence": 7100,
      "Ġphilosopher": 7101,
      "magic": 7102,
      "welcome": 7103,
      "weird": 7104,
      "Ġmillions": 7105,
      "Ġmillennium": 7106,
      "Ġcourage": 7107,
      "Ġcamera": 7108,
      "Ġpotassium": 7109,
      "Ġliterally": 7110,
      "Ġlessons": 7111,
      "ribute": 7112,
      "Ġtraveling": 7113,
      "Ġexplorer": 7114,
      "Ġfreshness": 7115,
      "Ġwalked": 7116,
      "Ġtemperatures": 7117,
      "multitas": 7118,
      "retion": 7119,
      "Ġcauses": 7120,
      "Ġcuddles": 7121,
      "Ġpastime": 7122,
      "Ġgeological": 7123,
      "Ġgeograph": 7124,
      "Ġrefined": 7125,
      "Ġengage": 7126,
      "Ġengaged": 7127,
      "Ġassurance": 7128,
      "Ġblankly": 7129,
      "Ġhopefully": 7130,
      "Ġadoration": 7131,
      "Ġtalkative": 7132,
      "Ġescaping": 7133,
      "Ġbravely": 7134,
      "Ġterrified": 7135,
      "exe": 7136,
      "exiting": 7137,
      "excellent": 7138,
      "facepal": 7139,
      "facepaw": 7140,
      "hiker": 7141,
      "Ġtallica": 7142,
      "Ġpositive": 7143,
      "Ġlengths": 7144,
      "Ġhydrogen": 7145,
      "Ġinspect": 7146,
      "Ġinsulation": 7147,
      "Ġrecover": 7148,
      "Ġbegins": 7149,
      "Ġrules": 7150,
      "Ġlegal": 7151,
      "Ġlegacy": 7152,
      "Ġsprinting": 7153,
      "Ġtruthful": 7154,
      "Ġpointless": 7155,
      "Ġconsumes": 7156,
      "Ġconsumption": 7157,
      "Ġsimulated": 7158,
      "Ġsimulations": 7159,
      "Ġapproximate": 7160,
      "Ġapproximates": 7161,
      "Ġversatile": 7162,
      "Ġsquint": 7163,
      "Ġpencils": 7164,
      "Ġpenicill": 7165,
      "Ġhurts": 7166,
      "strong": 7167,
      "strictly": 7168,
      "Ġstores": 7169,
      "Ġhaunt": 7170,
      "Ġmaximize": 7171,
      "Ġhealing": 7172,
      "Ġspends": 7173,
      "Ġoperation": 7174,
      "Ġglasses": 7175,
      "rrrrrrrrrrrrrrrrrrr": 7176,
      "Ġstealthy": 7177,
      "Ġimmediate": 7178,
      "Ġpasswords": 7179,
      "Ġtechnically": 7180,
      "180": 7181,
      "afk": 7182,
      "african": 7183,
      "greenland": 7184,
      "preens": 7185,
      "Ġtune": 7186,
      "Ġtuned": 7187,
      "Ġtunisia": 7188,
      "Ġmigration": 7189,
      "Ġcybor": 7190,
      "Ġflying": 7191,
      "Ġdragons": 7192,
      "Ġeyesight": 7193,
      "Ġthonic": 7194,
      "Ġthickest": 7195,
      "Ġstarry": 7196,
      "Ġvariable": 7197,
      "Ġcapture": 7198,
      "Ġzzzzz": 7199,
      "Ġapplies": 7200,
      "Ġappliance": 7201,
      "Ġbrowsing": 7202,
      "Ġbrowsers": 7203,
      "Ġunpredictably": 7204,
      "backup": 7205,
      "happiness": 7206,
      "knowing": 7207,
      "ohio": 7208,
      "screech": 7209,
      "sorry": 7210,
      "Ġultra": 7211,
      "Ġsalad": 7212,
      "Ġsalts": 7213,
      "Ġflee": 7214,
      "Ġfleeting": 7215,
      "anything": 7216,
      "Ġpancre": 7217,
      "Ġpayment": 7218,
      "Ġputs": 7219,
      "Ġdrop": 7220,
      "Ġdrooly": 7221,
      "Ġrecipient": 7222,
      "Ġforgiveness": 7223,
      "Ġnegative": 7224,
      "ssssss": 7225,
      "ssssssss": 7226,
      "Ġrodent": 7227,
      "Ġofferings": 7228,
      "Ġrables": 7229,
      "Ġattacked": 7230,
      "Ġimproving": 7231,
      "Ġimproved": 7232,
      "Ġcontinent": 7233,
      "Ġengineer": 7234,
      "1000": 7235,
      "python": 7236,
      "Ġtropical": 7237,
      "Ġturned": 7238,
      "Ġaudacity": 7239,
      "Ġsinister": 7240,
      "Ġlayered": 7241,
      "Ġdiversity": 7242,
      "Ġdialect": 7243,
      "Ġhigher": 7244,
      "Ġstalk": 7245,
      "Ġcharmed": 7246,
      "Ġdealing": 7247,
      "Ġvolcano": 7248,
      "Ġcloset": 7249,
      "Ġclosest": 7250,
      "Ġclicked": 7251,
      "Ġdatabases": 7252,
      "Ġappeared": 7253,
      "Ġinterrupting": 7254,
      "Ġrequires": 7255,
      "Ġconstantly": 7256,
      "affection": 7257,
      "affirm": 7258,
      "goals": 7259,
      "ppp": 7260,
      "Ġurine": 7261,
      "Ġtiming": 7262,
      "Ġcalcium": 7263,
      "Ġcrystal": 7264,
      "Ġcrystall": 7265,
      "Ġpunctuated": 7266,
      "Ġpeek": 7267,
      "Ġpolit": 7268,
      "Ġpolar": 7269,
      "Ġbreath": 7270,
      "Ġbreathe": 7271,
      "Ġlaptops": 7272,
      "Ġgrooming": 7273,
      "Ġrelying": 7274,
      "Ġrewarding": 7275,
      "Ġjumps": 7276,
      "Ġrising": 7277,
      "abytes": 7278,
      "Ġheights": 7279,
      "Ġvenus": 7280,
      "Ġclosely": 7281,
      "Ġfewer": 7282,
      "Ġtrusted": 7283,
      "Ġeffortless": 7284,
      "Ġrainbow": 7285,
      "Ġadventure": 7286,
      "Ġadventurous": 7287,
      "Ġcompletely": 7288,
      "Ġpossibility": 7289,
      "Ġsquares": 7290,
      "Ġultimately": 7291,
      "Ġrandomness": 7292,
      "diwhy": 7293,
      "ikr": 7294,
      "nitrogen": 7295,
      "Ġcrafted": 7296,
      "Ġtherap": 7297,
      "Ġthermal": 7298,
      "Ġtherapeutic": 7299,
      "Ġportrait": 7300,
      "Ġbarking": 7301,
      "Ġembra": 7302,
      "Ġgirlfriend": 7303,
      "Ġstrike": 7304,
      "Ġstarship": 7305,
      "Ġstretching": 7306,
      "Ġhackable": 7307,
      "Ġexcited": 7308,
      "Ġexciting": 7309,
      "Ġconcern": 7310,
      "Ġconcert": 7311,
      "Ġconcerning": 7312,
      "Ġlocation": 7313,
      "Ġlocated": 7314,
      "Ġlocations": 7315,
      "Ġallowed": 7316,
      "Ġcapacitors": 7317,
      "Ġjoyful": 7318,
      "Ġimpressive": 7319,
      "Ġshellfish": 7320,
      "Ġfrustrating": 7321,
      "Ġhistorically": 7322,
      "Ġmultitask": 7323,
      "Ġhonestly": 7324,
      "Ġchallenging": 7325,
      "Ġdiagram": 7326,
      "Ġdiagnost": 7327,
      "150": 7328,
      "beth": 7329,
      "cringe": 7330,
      "crickets": 7331,
      "private": 7332,
      "slow": 7333,
      "slay": 7334,
      "sloth": 7335,
      "such": 7336,
      "sheesh": 7337,
      "sheeeeeesh": 7338,
      "Ġui": 7339,
      "Ġufo": 7340,
      "Ġuganda": 7341,
      "Ġestablished": 7342,
      "Ġtitanium": 7343,
      "Ġticks": 7344,
      "Ġticklish": 7345,
      "Ġsectors": 7346,
      "Ġsandwich": 7347,
      "Ġyowls": 7348,
      "Ġfectly": 7349,
      "Ġbenef": 7350,
      "Ġlacking": 7351,
      "Ġhorror": 7352,
      "arrange": 7353,
      "Ġinitial": 7354,
      "Ġrecall": 7355,
      "rawberries": 7356,
      "Ġmacaw": 7357,
      "Ġmacbeth": 7358,
      "Ġcattv": 7359,
      "Ġleopards": 7360,
      "Ġprepared": 7361,
      "Ġallocated": 7362,
      "Ġadjusts": 7363,
      "Ġcrunchy": 7364,
      "Ġemitted": 7365,
      "Ġsnowshoe": 7366,
      "Ġcarrying": 7367,
      "Ġscreensaver": 7368,
      "Ġfashionable": 7369,
      "Ġdolphins": 7370,
      "Ġatmospheric": 7371,
      "airo": 7372,
      "boogie": 7373,
      "describe": 7374,
      "fyi": 7375,
      "paris": 7376,
      "Ġaggressive": 7377,
      "Ġsessions": 7378,
      "relatable": 7379,
      "Ġmercury": 7380,
      "Ġmistake": 7381,
      "Ġmistaken": 7382,
      "Ġcarnivores": 7383,
      "Ġcarnivor": 7384,
      "Ġwinked": 7385,
      "Ġpieces": 7386,
      "Ġpumps": 7387,
      "Ġpumpkin": 7388,
      "Ġevelyn": 7389,
      "Ġeasier": 7390,
      "Ġgrrrrr": 7391,
      "Ġmythical": 7392,
      "Ġcoinc": 7393,
      "Ġmajestic": 7394,
      "Ġmajesty": 7395,
      "Ġaloofness": 7396,
      "Ġrubber": 7397,
      "Ġrubik": 7398,
      "Ġcontainer": 7399,
      "Ġvibrating": 7400,
      "Ġvibrates": 7401,
      "Ġplatform": 7402,
      "Ġplatinum": 7403,
      "Ġspectacle": 7404,
      "Ġspectrum": 7405,
      "felis": 7406,
      "Ġflags": 7407,
      "Ġopportun": 7408,
      "Ġdiscussion": 7409,
      "Ġdiscretion": 7410,
      "Ġbottom": 7411,
      "Ġbottlenose": 7412,
      "Ġbatteries": 7413,
      "Ġpriorit": 7414,
      "Ġpriority": 7415,
      "Ġexceptionally": 7416,
      "Ġcougars": 7417,
      "Ġnegotiate": 7418,
      "Ġnegotiator": 7419,
      "Ġmicrosoft": 7420,
      "Ġinsects": 7421,
      "Ġoverflowed": 7422,
      "Ġappreciated": 7423,
      "Ġdisconnects": 7424,
      "190": 7425,
      "451": 7426,
      "friendship": 7427,
      "morning": 7428,
      "mandarin": 7429,
      "smh": 7430,
      "Ġscand": 7431,
      "Ġscans": 7432,
      "Ġsarcastic": 7433,
      "Ġsarcasm": 7434,
      "headbutting": 7435,
      "Ġmalaysia": 7436,
      "Ġcorner": 7437,
      "Ġcorners": 7438,
      "Ġwatt": 7439,
      "Ġwaters": 7440,
      "Ġwiggle": 7441,
      "Ġwiggling": 7442,
      "Ġwired": 7443,
      "Ġpleased": 7444,
      "Ġpixels": 7445,
      "Ġbulb": 7446,
      "Ġbulbs": 7447,
      "Ġbanglad": 7448,
      "Ġangles": 7449,
      "Ġangola": 7450,
      "Ġnickel": 7451,
      "learning": 7452,
      "Ġreactions": 7453,
      "Ġmeerkat": 7454,
      "Ġmeerkats": 7455,
      "Ġsteam": 7456,
      "Ġsteady": 7457,
      "Ġstorms": 7458,
      "Ġproportional": 7459,
      "Ġheavy": 7460,
      "Ġheavier": 7461,
      "Ġconflict": 7462,
      "Ġconflicting": 7463,
      "Ġconditional": 7464,
      "Ġvalue": 7465,
      "Ġvalley": 7466,
      "Ġleaps": 7467,
      "Ġundignified": 7468,
      "Ġsparking": 7469,
      "Ġspaceship": 7470,
      "Ġaspiration": 7471,
      "Ġbuzzing": 7472,
      "Ġblues": 7473,
      "Ġblueprint": 7474,
      "Ġrobust": 7475,
      "Ġrobotic": 7476,
      "Ġcompete": 7477,
      "omodo": 7478,
      "Ġtraditionally": 7479,
      "Ġsymbiotic": 7480,
      "Ġsymbioting": 7481,
      "Ġcontrary": 7482,
      "Ġcontrition": 7483,
      "Ġcompelling": 7484,
      "0001": 7485,
      "Ġsupervision": 7486,
      "Ġdistracting": 7487,
      "Ġregardless": 7488,
      "Ġdecreed": 7489,
      "Ġdecreased": 7490,
      "Ġindicate": 7491,
      "Ġincrease": 7492,
      "snowshoe": 7493,
      "Ġinitiate": 7494,
      "Ġinitiating": 7495,
      "captchas": 7496,
      "drones": 7497,
      "funny": 7498,
      "freshly": 7499,
      "klore": 7500,
      "spins": 7501,
      "Ġtasks": 7502,
      "Ġaston": 7503,
      "Ġaquatic": 7504,
      "Ġssd": 7505,
      "Ġsacred": 7506,
      "Ġmildly": 7507,
      "Ġcabin": 7508,
      "Ġfolklore": 7509,
      "Ġfalcon": 7510,
      "Ġwidest": 7511,
      "Ġpipe": 7512,
      "Ġpuppy": 7513,
      "Ġbrrrzzzzzt": 7514,
      "Ġduet": 7515,
      "Ġdoubt": 7516,
      "Ġdenial": 7517,
      "Ġanxiety": 7518,
      "Ġancestors": 7519,
      "Ġhuge": 7520,
      "Ġhitchhiker": 7521,
      "Ġeconomy": 7522,
      "Ġinstantly": 7523,
      "Ġgyat": 7524,
      "Ġreleased": 7525,
      "Ġmeasures": 7526,
      "Ġkitchen": 7527,
      "Ġfortune": 7528,
      "Ġcopper": 7529,
      "Ġstubborn": 7530,
      "Ġhamlet": 7531,
      "impress": 7532,
      "Ġriddle": 7533,
      "Ġexcessive": 7534,
      "debug": 7535,
      "Ġconvoluted": 7536,
      "Ġvirus": 7537,
      "Ġatomic": 7538,
      "Ġunresolved": 7539,
      "Ġunstable": 7540,
      "Ġundefeated": 7541,
      "Ġenigmatic": 7542,
      "Ġendearment": 7543,
      "Ġspilled": 7544,
      "Ġscarce": 7545,
      "Ġrotates": 7546,
      "Ġrolls": 7547,
      "Ġcheerfully": 7548,
      "Ġfluent": 7549,
      "Ġ01001000": 7550,
      "Ġstruggle": 7551,
      "Ġdisappointment": 7552,
      "Ġgrudges": 7553,
      "Ġsupposedly": 7554,
      "Ġradioactivity": 7555,
      "Ġstorytelling": 7556,
      "Ġminerals": 7557,
      "Ġreliably": 7558,
      "Ġreligion": 7559,
      "Ġexploit": 7560,
      "Ġmeticulously": 7561,
      "Ġfrankenstein": 7562,
      "Ġlandscape": 7563,
      "Ġconfrontations": 7564,
      "Ġintroduction": 7565,
      "Ġindonesia": 7566,
      "Ġinspires": 7567,
      "Ġvariables": 7568,
      "Ġamerican": 7569,
      "Ġairplane": 7570,
      "Ġcalendars": 7571,
      "Ġtranslation": 7572,
      "Ġportugal": 7573,
      "Ġskeletons": 7574,
      "Ġhorizontally": 7575,
      "Ġrecorded": 7576,
      "Ġmelodious": 7577,
      "Ġfootprint": 7578,
      "Ġfluctuate": 7579,
      "Ġmetaphorically": 7580,
      "Ġdefragmentation": 7581,
      "Ġsuspiciously": 7582,
      "Ġcucumbers": 7583,
      "Ġinnovative": 7584,
      "Ġoverclocking": 7585,
      "birds": 7586,
      "busy": 7587,
      "bussin": 7588,
      "brrrrrrrrrrrrrrrrrrrrrrrrrrrrrrrrrrrrrrrrrrrrrrrrrrr": 7589,
      "careful": 7590,
      "dreaming": 7591,
      "empty": 7592,
      "extra": 7593,
      "fanum": 7594,
      "frogs": 7595,
      "fantastic": 7596,
      "gtg": 7597,
      "gsten": 7598,
      "gaslight": 7599,
      "girlboss": 7600,
      "iopia": 7601,
      "large": 7602,
      "lonely": 7603,
      "laughing": 7604,
      "lmao": 7605,
      "nvm": 7606,
      "octopuses": 7607,
      "odynamic": 7608,
      "puns": 7609,
      "summer": 7610,
      "ssey": 7611,
      "ttyl": 7612,
      "vatican": 7613,
      "vocalizations": 7614,
      "wdym": 7615,
      "zania": 7616,
      "Ġverdict": 7617,
      "Ġutter": 7618,
      "Ġtanzania": 7619,
      "Ġtarget": 7620,
      "Ġtongue": 7621,
      "Ġtangled": 7622,
      "Ġaerodynamic": 7623,
      "Ġarabia": 7624,
      "Ġamphibian": 7625,
      "Ġillegal": 7626,
      "Ġsenior": 7627,
      "Ġsigterm": 7628,
      "Ġschr": 7629,
      "Ġsatellite": 7630,
      "Ġsilliest": 7631,
      "Ġsizes": 7632,
      "Ġmirror": 7633,
      "Ġmarsupial": 7634,
      "Ġyork": 7635,
      "Ġyelling": 7636,
      "Ġyoga": 7637,
      "Ġcitizens": 7638,
      "Ġcaching": 7639,
      "Ġcelestial": 7640,
      "Ġcelsius": 7641,
      "Ġcumulonimbus": 7642,
      "Ġfrog": 7643,
      "Ġfully": 7644,
      "Ġfibonac": 7645,
      "Ġolympic": 7646,
      "Ġodyssey": 7647,
      "Ġoscillate": 7648,
      "answers": 7649,
      "Ġwoogie": 7650,
      "Ġpirate": 7651,
      "Ġpessimist": 7652,
      "Ġpandas": 7653,
      "Ġpacific": 7654,
      "Ġparsed": 7655,
      "Ġpakistan": 7656,
      "Ġpublic": 7657,
      "Ġpiercing": 7658,
      "Ġpppppp": 7659,
      "Ġpizza": 7660,
      "Ġbunnies": 7661,
      "Ġbamboo": 7662,
      "Ġbzzzzt": 7663,
      "Ġbumblebee": 7664,
      "encies": 7665,
      "Ġlabel": 7666,
      "Ġlosing": 7667,
      "Ġlinked": 7668,
      "Ġlullaby": 7669,
      "Ġlanka": 7670,
      "Ġdente": 7671,
      "Ġddos": 7672,
      "arguments": 7673,
      "Ġnickname": 7674,
      "Ġnuzzle": 7675,
      "Ġnigeria": 7676,
      "Ġtomorrow": 7677,
      "stretch": 7678,
      "Ġethiopia": 7679,
      "Ġethernet": 7680,
      "Ġepoch": 7681,
      "Ġinconvenience": 7682,
      "unexplored": 7683,
      "Ġgreek": 7684,
      "Ġgusto": 7685,
      "Ġghana": 7686,
      "Ġgermany": 7687,
      "Ġrectangle": 7688,
      "Ġreckless": 7689,
      "Ġreproductive": 7690,
      "Ġrecharge": 7691,
      "Ġmechanical": 7692,
      "Ġkarenina": 7693,
      "Ġfavorites": 7694,
      "Ġfaithful": 7695,
      "Ġfacial": 7696,
      "meerkats": 7697,
      "Ġthailand": 7698,
      "Ġforgery": 7699,
      "Ġcombination": 7700,
      "Ġcobalt": 7701,
      "Ġhaiku": 7702,
      "Ġsomalia": 7703,
      "Ġcatlifornia": 7704,
      "Ġalmighty": 7705,
      "Ġchromium": 7706,
      "Ġchilling": 7707,
      "Ġchlorine": 7708,
      "Ġcanadensis": 7709,
      "Ġrusts": 7710,
      "Ġdeposit": 7711,
      "Ġexhibit": 7712,
      "Ġvietnam": 7713,
      "Ġattemp": 7714,
      "Ġunauthorized": 7715,
      "Ġundeniable": 7716,
      "Ġunintentionally": 7717,
      "Ġunchecked": 7718,
      "Ġunnecessary": 7719,
      "Ġundivided": 7720,
      "Ġunavailable": 7721,
      "Ġunmatched": 7722,
      "Ġungulates": 7723,
      "Ġspacetime": 7724,
      "ghosted": 7725,
      "Ġabomination": 7726,
      "Ġabsurd": 7727,
      "Ġcluster": 7728,
      "Ġornaments": 7729,
      "Ġovergrazing": 7730,
      "Ġargentina": 7731,
      "Ġintricate": 7732,
      "Ġ1011101": 7733,
      "Ġnostalgic": 7734,
      "Ġenthusiastic": 7735,
      "Ġfunneling": 7736,
      "Ġflattering": 7737,
      "Ġadminist": 7738,
      "Ġzimbabwe": 7739,
      "Ġworldview": 7740,
      "Ġthemselves": 7741,
      "approximately": 7742,
      "Ġphobia": 7743,
      "Ġphosphorus": 7744,
      "Ġkeystrokes": 7745,
      "Ġconspiracy": 7746,
      "Ġintoxicating": 7747,
      "Ġslobber": 7748,
      "Ġinfluence": 7749,
      "Ġprinciple": 7750,
      "Ġbackwards": 7751,
      "Ġmisunderstood": 7752,
      "Ġinterbreed": 7753,
      "Ġsubmarine": 7754,
      "Ġprescription": 7755,
      "Ġuntilitstops": 7756,
      "Ġmonstrous": 7757,
      "Ġlandmarks": 7758,
      "Ġretrieval": 7759,
      "Ġconfigured": 7760,
      "Ġencroachment": 7761,
      "Ġmorocco": 7762,
      "Ġguarantees": 7763,
      "Ġguernica": 7764,
      "Ġrestaurant": 7765,
      "multitasking": 7766,
      "Ġgeographical": 7767,
      "facepalm": 7768,
      "Ġpenicillin": 7769,
      "Ġcyborg": 7770,
      "Ġpancreas": 7771,
      "affirmative": 7772,
      "Ġcrystalline": 7773,
      "sloths": 7774,
      "Ġbangladesh": 7775,
      "Ġmarsupials": 7776,
      "Ġfibonacci": 7777
    },
    "merges": [
      [
        "Ġ",
        "t"
      ],
      [
        "Ġ",
        "a"
      ],
      [
        "Ġ",
        "i"
      ],
      [
        "Ġ",
        "s"
      ],
      [
        "o",
        "u"
      ],
      [
        "a",
        "t"
      ],
      [
        "h",
        "e"
      ],
      [
        "r",
        "e"
      ],
      [
        "Ġ",
        "m"
      ],
      [
        "i",
        "n"
      ],
      [
        "Ġ",
        "y"
      ],
      [
        "Ġy",
        "ou"
      ],
      [
        "Ġ",
        "c"
      ],
      [
        "e",
        "r"
      ],
      [
        "Ġ",
        "f"
      ],
      [
        "Ġ",
        "o"
      ],
      [
        "Ġt",
        "he"
      ],
      [
        "a",
        "n"
      ],
      [
        "Ġ",
        "w"
      ],
      [
        "Ġ",
        "p"
      ],
      [
        "Ġ",
        "b"
      ],
      [
        "h",
        "at"
      ],
      [
        "in",
        "g"
      ],
      [
        "i",
        "t"
      ],
      [
        "o",
        "r"
      ],
      [
        "e",
        "s"
      ],
      [
        "e",
        "n"
      ],
      [
        "Ġ",
        "l"
      ],
      [
        "Ġ",
        "d"
      ],
      [
        "o",
        "n"
      ],
      [
        "Ġi",
        "s"
      ],
      [
        "a",
        "l"
      ],
      [
        "Ġa",
        "n"
      ],
      [
        "Ġ",
        "h"
      ],
      [
        "w",
        "hat"
      ],
      [
        "Ġo",
        "f"
      ],
      [
        "a",
        "r"
      ],
      [
        "Ġ",
        "n"
      ],
      [
        "Ġan",
        "d"
      ],
      [
        "Ġyou",
        "r"
      ],
      [
        "e",
        "d"
      ],
      [
        "o",
        "w"
      ],
      [
        "Ġt",
        "o"
      ],
      [
        "s",
        "t"
      ],
      [
        "i",
        "c"
      ],
      [
        "Ġ",
        "e"
      ],
      [
        "v",
        "e"
      ],
      [
        "Ġi",
        "n"
      ],
      [
        "u",
        "n"
      ],
      [
        "Ġi",
        "t"
      ],
      [
        "l",
        "e"
      ],
      [
        "l",
        "y"
      ],
      [
        "a",
        "re"
      ],
      [
        "Ġ",
        "g"
      ],
      [
        "e",
        "t"
      ],
      [
        "r",
        "o"
      ],
      [
        "l",
        "l"
      ],
      [
        "u",
        "r"
      ],
      [
        "en",
        "t"
      ],
      [
        "i",
        "s"
      ],
      [
        "i",
        "on"
      ],
      [
        "a",
        "p"
      ],
      [
        "v",
        "er"
      ],
      [
        "a",
        "s"
      ],
      [
        ".",
        "."
      ],
      [
        "Ġ",
        "re"
      ],
      [
        "Ġm",
        "y"
      ],
      [
        "Ġm",
        "e"
      ],
      [
        "o",
        "o"
      ],
      [
        "t",
        "he"
      ],
      [
        "c",
        "t"
      ],
      [
        "Ġ",
        "k"
      ],
      [
        "Ġf",
        "a"
      ],
      [
        "a",
        "y"
      ],
      [
        "m",
        "e"
      ],
      [
        "Ġo",
        "n"
      ],
      [
        "i",
        "g"
      ],
      [
        "Ġt",
        "h"
      ],
      [
        "it",
        "e"
      ],
      [
        "u",
        "m"
      ],
      [
        "Ġb",
        "e"
      ],
      [
        "Ġl",
        "i"
      ],
      [
        "c",
        "e"
      ],
      [
        "v",
        "or"
      ],
      [
        "vor",
        "ite"
      ],
      [
        "Ġfa",
        "vorite"
      ],
      [
        "k",
        "e"
      ],
      [
        "Ġf",
        "or"
      ],
      [
        "Ġc",
        "o"
      ],
      [
        "o",
        "t"
      ],
      [
        "u",
        "t"
      ],
      [
        "Ġs",
        "t"
      ],
      [
        "r",
        "a"
      ],
      [
        "Ġt",
        "hat"
      ],
      [
        "u",
        "l"
      ],
      [
        "Ġh",
        "a"
      ],
      [
        "i",
        "r"
      ],
      [
        "u",
        "s"
      ],
      [
        "Ġd",
        "o"
      ],
      [
        "i",
        "m"
      ],
      [
        "r",
        "r"
      ],
      [
        "c",
        "k"
      ],
      [
        "Ġn",
        "ap"
      ],
      [
        "Ġ",
        "j"
      ],
      [
        "c",
        "h"
      ],
      [
        "oo",
        "d"
      ],
      [
        "Ġm",
        "a"
      ],
      [
        "i",
        "d"
      ],
      [
        "Ġ",
        "1"
      ],
      [
        "it",
        "h"
      ],
      [
        "y",
        "n"
      ],
      [
        "i",
        "l"
      ],
      [
        "t",
        "er"
      ],
      [
        "Ġs",
        "o"
      ],
      [
        "Ġm",
        "o"
      ],
      [
        "Ġl",
        "yn"
      ],
      [
        "Ġc",
        "at"
      ],
      [
        "es",
        "t"
      ],
      [
        "re",
        "at"
      ],
      [
        "..",
        "."
      ],
      [
        "Ġw",
        "ith"
      ],
      [
        "d",
        "o"
      ],
      [
        "e",
        "e"
      ],
      [
        "Ġa",
        "re"
      ],
      [
        "p",
        "e"
      ],
      [
        "s",
        "e"
      ],
      [
        "Ġha",
        "ve"
      ],
      [
        "l",
        "d"
      ],
      [
        "Ġli",
        "ke"
      ],
      [
        "es",
        "s"
      ],
      [
        "t",
        "h"
      ],
      [
        "Ġp",
        "ro"
      ],
      [
        "Ġa",
        "l"
      ],
      [
        "Ġc",
        "h"
      ],
      [
        "Ġj",
        "u"
      ],
      [
        "Ġh",
        "um"
      ],
      [
        "Ġc",
        "an"
      ],
      [
        "q",
        "u"
      ],
      [
        "Ġ",
        "r"
      ],
      [
        "Ġw",
        "h"
      ],
      [
        "ig",
        "h"
      ],
      [
        "a",
        "b"
      ],
      [
        "Ġd",
        "e"
      ],
      [
        "c",
        "an"
      ],
      [
        "Ġe",
        "x"
      ],
      [
        "Ġ",
        "he"
      ],
      [
        "Ġ",
        "2"
      ],
      [
        "Ġlyn",
        "x"
      ],
      [
        "e",
        "ct"
      ],
      [
        "ou",
        "s"
      ],
      [
        "g",
        "e"
      ],
      [
        "Ġhum",
        "an"
      ],
      [
        "d",
        "e"
      ],
      [
        "at",
        "e"
      ],
      [
        "Ġc",
        "on"
      ],
      [
        "Ġk",
        "n"
      ],
      [
        "i",
        "f"
      ],
      [
        "al",
        "l"
      ],
      [
        "at",
        "ion"
      ],
      [
        "Ġ",
        "v"
      ],
      [
        "ver",
        "y"
      ],
      [
        "a",
        "d"
      ],
      [
        "Ġw",
        "or"
      ],
      [
        "u",
        "p"
      ],
      [
        "an",
        "d"
      ],
      [
        "Ġa",
        "t"
      ],
      [
        "a",
        "m"
      ],
      [
        "it",
        "y"
      ],
      [
        "Ġw",
        "he"
      ],
      [
        "Ġth",
        "ing"
      ],
      [
        "Ġl",
        "e"
      ],
      [
        "Ġ",
        "un"
      ],
      [
        "ou",
        "n"
      ],
      [
        "o",
        "s"
      ],
      [
        "e",
        "et"
      ],
      [
        "Ġp",
        "re"
      ],
      [
        "igh",
        "t"
      ],
      [
        "m",
        "p"
      ],
      [
        "r",
        "i"
      ],
      [
        "al",
        "ly"
      ],
      [
        "Ġp",
        "er"
      ],
      [
        "Ġa",
        "m"
      ],
      [
        "ro",
        "m"
      ],
      [
        "ou",
        "t"
      ],
      [
        "Ġn",
        "e"
      ],
      [
        "c",
        "i"
      ],
      [
        "a",
        "in"
      ],
      [
        "e",
        "ll"
      ],
      [
        "p",
        "ing"
      ],
      [
        "un",
        "eet"
      ],
      [
        "Ġb",
        "ut"
      ],
      [
        "w",
        "h"
      ],
      [
        "o",
        "l"
      ],
      [
        "Ġf",
        "rom"
      ],
      [
        "an",
        "t"
      ],
      [
        "Ġf",
        "ood"
      ],
      [
        "Ġ",
        "en"
      ],
      [
        "i",
        "ve"
      ],
      [
        "i",
        "ll"
      ],
      [
        "Ġs",
        "p"
      ],
      [
        "Ġp",
        "l"
      ],
      [
        "g",
        "h"
      ],
      [
        "Ġm",
        "an"
      ],
      [
        "Ġa",
        "s"
      ],
      [
        "Ġp",
        "uneet"
      ],
      [
        "Ġ",
        "3"
      ],
      [
        "Ġw",
        "e"
      ],
      [
        "it",
        "al"
      ],
      [
        "f",
        "f"
      ],
      [
        "Ġb",
        "y"
      ],
      [
        "Ġa",
        "b"
      ],
      [
        "Ġn",
        "ot"
      ],
      [
        "Ġman",
        "y"
      ],
      [
        "Ġt",
        "i"
      ],
      [
        "m",
        "ent"
      ],
      [
        "a",
        "ck"
      ],
      [
        "f",
        "ul"
      ],
      [
        "Ġh",
        "ow"
      ],
      [
        "h",
        "ow"
      ],
      [
        "ou",
        "ld"
      ],
      [
        "i",
        "st"
      ],
      [
        "Ġ",
        "qu"
      ],
      [
        "Ġc",
        "l"
      ],
      [
        "Ġwhe",
        "n"
      ],
      [
        "Ġs",
        "er"
      ],
      [
        "ab",
        "le"
      ],
      [
        "Ġs",
        "e"
      ],
      [
        "i",
        "ous"
      ],
      [
        "u",
        "re"
      ],
      [
        "Ġs",
        "c"
      ],
      [
        "oun",
        "d"
      ],
      [
        "Ġp",
        "ur"
      ],
      [
        "in",
        "e"
      ],
      [
        "Ġju",
        "d"
      ],
      [
        "ou",
        "gh"
      ],
      [
        "Ġo",
        "r"
      ],
      [
        "en",
        "d"
      ],
      [
        "in",
        "d"
      ],
      [
        "is",
        "h"
      ],
      [
        "Ġnap",
        "ping"
      ],
      [
        "o",
        "re"
      ],
      [
        "o",
        "ck"
      ],
      [
        "ar",
        "n"
      ],
      [
        "Ġo",
        "ver"
      ],
      [
        "Ġc",
        "reat"
      ],
      [
        "i",
        "e"
      ],
      [
        "Ġ",
        "."
      ],
      [
        "Ġthing",
        "s"
      ],
      [
        "Ġmo",
        "st"
      ],
      [
        "ar",
        "t"
      ],
      [
        "Ġlynx",
        "es"
      ],
      [
        "ic",
        "h"
      ],
      [
        "Ġe",
        "very"
      ],
      [
        "r",
        "y"
      ],
      [
        "Ġ",
        "4"
      ],
      [
        "ou",
        "r"
      ],
      [
        "b",
        "er"
      ],
      [
        "Ġti",
        "me"
      ],
      [
        "m",
        "m"
      ],
      [
        "Ġt",
        "reat"
      ],
      [
        "Ġl",
        "o"
      ],
      [
        "o",
        "p"
      ],
      [
        "s",
        "o"
      ],
      [
        "or",
        "y"
      ],
      [
        "s",
        "s"
      ],
      [
        "t",
        "ing"
      ],
      [
        "Ġon",
        "e"
      ],
      [
        "Ġs",
        "h"
      ],
      [
        "Ġco",
        "de"
      ],
      [
        "Ġa",
        "ll"
      ],
      [
        "Ġg",
        "ood"
      ],
      [
        "k",
        "ing"
      ],
      [
        "ay",
        "s"
      ],
      [
        "Ġju",
        "st"
      ],
      [
        "as",
        "s"
      ],
      [
        "b",
        "it"
      ],
      [
        "a",
        "st"
      ],
      [
        "p",
        "t"
      ],
      [
        "Ġb",
        "u"
      ],
      [
        "im",
        "es"
      ],
      [
        "Ġkn",
        "ow"
      ],
      [
        "p",
        "ur"
      ],
      [
        "ic",
        "al"
      ],
      [
        "Ġe",
        "at"
      ],
      [
        "ar",
        "d"
      ],
      [
        "Ġb",
        "l"
      ],
      [
        "Ġhuman",
        "s"
      ],
      [
        "Ġle",
        "arn"
      ],
      [
        "on",
        "g"
      ],
      [
        "Ġal",
        "so"
      ],
      [
        "Ġkn",
        "ock"
      ],
      [
        "Ġa",
        "r"
      ],
      [
        "Ġs",
        "pe"
      ],
      [
        "b",
        "e"
      ],
      [
        "Ġc",
        "ur"
      ],
      [
        "Ġc",
        "ap"
      ],
      [
        "Ġpur",
        "r"
      ],
      [
        "Ġf",
        "e"
      ],
      [
        "Ġin",
        "t"
      ],
      [
        "pur",
        "rr"
      ],
      [
        "Ġ",
        "us"
      ],
      [
        "Ġ1",
        "0"
      ],
      [
        "id",
        "e"
      ],
      [
        "ter",
        "n"
      ],
      [
        "Ġab",
        "out"
      ],
      [
        "Ġ",
        "up"
      ],
      [
        "Ġw",
        "hat"
      ],
      [
        "Ġs",
        "y"
      ],
      [
        "un",
        "a"
      ],
      [
        "Ġd",
        "ig"
      ],
      [
        "i",
        "p"
      ],
      [
        "Ġn",
        "o"
      ],
      [
        "i",
        "v"
      ],
      [
        "a",
        "c"
      ],
      [
        "d",
        "er"
      ],
      [
        "Ġ",
        "ro"
      ],
      [
        "i",
        "es"
      ],
      [
        "Ġc",
        "he"
      ],
      [
        "Ġth",
        "is"
      ],
      [
        "Ġper",
        "f"
      ],
      [
        "Ġ",
        "ve"
      ],
      [
        "or",
        "t"
      ],
      [
        "Ġd",
        "at"
      ],
      [
        "ar",
        "m"
      ],
      [
        "Ġtreat",
        "s"
      ],
      [
        "t",
        "ain"
      ],
      [
        "en",
        "ce"
      ],
      [
        "Ġjud",
        "g"
      ],
      [
        "ar",
        "y"
      ],
      [
        "Ġme",
        "an"
      ],
      [
        "Ġwh",
        "o"
      ],
      [
        "f",
        "e"
      ],
      [
        "q",
        "bit"
      ],
      [
        "Ġ",
        "ent"
      ],
      [
        "Ġ",
        "very"
      ],
      [
        "Ġex",
        "p"
      ],
      [
        "Ġf",
        "un"
      ],
      [
        "m",
        "y"
      ],
      [
        "Ġf",
        "l"
      ],
      [
        "an",
        "ce"
      ],
      [
        "Ġh",
        "o"
      ],
      [
        "Ġg",
        "et"
      ],
      [
        "Ġme",
        "ow"
      ],
      [
        "a",
        "w"
      ],
      [
        "d",
        "ay"
      ],
      [
        "i",
        "re"
      ],
      [
        "Ġt",
        "imes"
      ],
      [
        "Ġp",
        "at"
      ],
      [
        "Ġdig",
        "ital"
      ],
      [
        "Ġb",
        "o"
      ],
      [
        "on",
        "e"
      ],
      [
        "ion",
        "s"
      ],
      [
        "Ġmo",
        "re"
      ],
      [
        "th",
        "ing"
      ],
      [
        "Ġ",
        "0"
      ],
      [
        "Ġ",
        "5"
      ],
      [
        "at",
        "ch"
      ],
      [
        "re",
        "am"
      ],
      [
        "Ġw",
        "as"
      ],
      [
        "er",
        "s"
      ],
      [
        "is",
        "s"
      ],
      [
        "ver",
        "s"
      ],
      [
        "Ġthe",
        "y"
      ],
      [
        "Ġh",
        "un"
      ],
      [
        "a",
        "me"
      ],
      [
        "v",
        "es"
      ],
      [
        "Ġdat",
        "a"
      ],
      [
        "an",
        "g"
      ],
      [
        "Ġt",
        "e"
      ],
      [
        "Ġg",
        "o"
      ],
      [
        "t",
        "y"
      ],
      [
        "Ġs",
        "u"
      ],
      [
        "at",
        "ed"
      ],
      [
        "Ġlyn",
        "qbit"
      ],
      [
        "wh",
        "y"
      ],
      [
        "c",
        "c"
      ],
      [
        "Ġ",
        "8"
      ],
      [
        "Ġa",
        "d"
      ],
      [
        "Ġs",
        "n"
      ],
      [
        "Ġch",
        "a"
      ],
      [
        "Ġ",
        "6"
      ],
      [
        "ic",
        "e"
      ],
      [
        "Ġ",
        "7"
      ],
      [
        "Ġt",
        "a"
      ],
      [
        "Ġt",
        "r"
      ],
      [
        "Ġs",
        "ee"
      ],
      [
        "Ġd",
        "ay"
      ],
      [
        "b",
        "le"
      ],
      [
        "i",
        "z"
      ],
      [
        "t",
        "ed"
      ],
      [
        "y",
        "es"
      ],
      [
        "Ġk",
        "ind"
      ],
      [
        "ish",
        "ra"
      ],
      [
        "Ġperf",
        "ect"
      ],
      [
        "l",
        "f"
      ],
      [
        "t",
        "s"
      ],
      [
        "Ġs",
        "m"
      ],
      [
        "re",
        "d"
      ],
      [
        "Ġco",
        "mp"
      ],
      [
        "Ġwh",
        "ich"
      ],
      [
        "i",
        "le"
      ],
      [
        "Ġf",
        "ur"
      ],
      [
        "Ġan",
        "y"
      ],
      [
        "Ġco",
        "mm"
      ],
      [
        "ation",
        "s"
      ],
      [
        "i",
        "an"
      ],
      [
        "ic",
        "k"
      ],
      [
        "Ġg",
        "en"
      ],
      [
        "a",
        "ge"
      ],
      [
        "Ġ",
        "9"
      ],
      [
        "Ġt",
        "y"
      ],
      [
        "Ġe",
        "ff"
      ],
      [
        "d",
        "u"
      ],
      [
        "m",
        "et"
      ],
      [
        "Ġof",
        "f"
      ],
      [
        "Ġn",
        "ow"
      ],
      [
        "e",
        "p"
      ],
      [
        "w",
        "ays"
      ],
      [
        "Ġd",
        "on"
      ],
      [
        "purrr",
        "r"
      ],
      [
        "Ġm",
        "ishra"
      ],
      [
        "me",
        "ow"
      ],
      [
        "Ġspe",
        "ci"
      ],
      [
        "Ġcap",
        "ital"
      ],
      [
        "Ġs",
        "un"
      ],
      [
        "Ġc",
        "hat"
      ],
      [
        "or",
        "s"
      ],
      [
        "as",
        "e"
      ],
      [
        "c",
        "o"
      ],
      [
        "Ġ",
        "z"
      ],
      [
        "Ġw",
        "arm"
      ],
      [
        "the",
        "r"
      ],
      [
        "g",
        "g"
      ],
      [
        "d",
        "s"
      ],
      [
        "Ġw",
        "ould"
      ],
      [
        "en",
        "s"
      ],
      [
        "Ġal",
        "ways"
      ],
      [
        "Ġlo",
        "ve"
      ],
      [
        "Ġt",
        "una"
      ],
      [
        "Ġs",
        "ound"
      ],
      [
        "Ġb",
        "ir"
      ],
      [
        "k",
        "es"
      ],
      [
        "Ġi",
        "f"
      ],
      [
        "Ġre",
        "al"
      ],
      [
        "rr",
        "rr"
      ],
      [
        "Ġo",
        "p"
      ],
      [
        "Ġp",
        "o"
      ],
      [
        "it",
        "s"
      ],
      [
        "e",
        "y"
      ],
      [
        "h",
        "ing"
      ],
      [
        "u",
        "al"
      ],
      [
        "Ġs",
        "ass"
      ],
      [
        "Ġh",
        "as"
      ],
      [
        "ri",
        "end"
      ],
      [
        "Ġpl",
        "ay"
      ],
      [
        "a",
        "ct"
      ],
      [
        "a",
        "ce"
      ],
      [
        "Ġc",
        "all"
      ],
      [
        "ul",
        "t"
      ],
      [
        "Ġ2",
        "0"
      ],
      [
        "Ġwor",
        "ld"
      ],
      [
        "Ġqu",
        "est"
      ],
      [
        "k",
        "s"
      ],
      [
        "Ġthe",
        "re"
      ],
      [
        "is",
        "e"
      ],
      [
        "g",
        "s"
      ],
      [
        "g",
        "ic"
      ],
      [
        "u",
        "e"
      ],
      [
        "Ġ",
        "out"
      ],
      [
        "Ġs",
        "ur"
      ],
      [
        "Ġthe",
        "m"
      ],
      [
        "ar",
        "s"
      ],
      [
        "Ġm",
        "ay"
      ],
      [
        "Ġl",
        "ar"
      ],
      [
        "Ġd",
        "ream"
      ],
      [
        "i",
        "ent"
      ],
      [
        "Ġt",
        "er"
      ],
      [
        "um",
        "ber"
      ],
      [
        "Ġso",
        "met"
      ],
      [
        "Ġse",
        "c"
      ],
      [
        "Ġt",
        "ell"
      ],
      [
        "Ġc",
        "ould"
      ],
      [
        "Ġf",
        "riend"
      ],
      [
        "ow",
        "er"
      ],
      [
        "Ġma",
        "in"
      ],
      [
        "se",
        "lf"
      ],
      [
        "Ġser",
        "ver"
      ],
      [
        "o",
        "m"
      ],
      [
        "u",
        "d"
      ],
      [
        "Ġnap",
        "s"
      ],
      [
        "Ġevery",
        "thing"
      ],
      [
        "Ġar",
        "t"
      ],
      [
        "t",
        "e"
      ],
      [
        "Ġa",
        "p"
      ],
      [
        "Ġl",
        "l"
      ],
      [
        "Ġn",
        "umber"
      ],
      [
        "ap",
        "p"
      ],
      [
        "Ġk",
        "um"
      ],
      [
        "Ġwhe",
        "re"
      ],
      [
        "Ġcha",
        "os"
      ],
      [
        "Ġkum",
        "ar"
      ],
      [
        "a",
        "g"
      ],
      [
        "Ġst",
        "r"
      ],
      [
        "s",
        "h"
      ],
      [
        "Ġb",
        "et"
      ],
      [
        "ow",
        "l"
      ],
      [
        "Ġto",
        "day"
      ],
      [
        "ee",
        "p"
      ],
      [
        "Ġd",
        "es"
      ],
      [
        "oo",
        "k"
      ],
      [
        "Ġ1",
        "1"
      ],
      [
        "st",
        "e"
      ],
      [
        "Ġth",
        "r"
      ],
      [
        "ee",
        "l"
      ],
      [
        "n",
        "ing"
      ],
      [
        "he",
        "r"
      ],
      [
        "re",
        "e"
      ],
      [
        "in",
        "k"
      ],
      [
        "Ġo",
        "b"
      ],
      [
        "l",
        "p"
      ],
      [
        "m",
        "b"
      ],
      [
        "Ġa",
        "i"
      ],
      [
        "Ġf",
        "eel"
      ],
      [
        "ve",
        "l"
      ],
      [
        "a",
        "us"
      ],
      [
        "g",
        "est"
      ],
      [
        "Ġd",
        "is"
      ],
      [
        "et",
        "s"
      ],
      [
        "Ġli",
        "fe"
      ],
      [
        "Ġent",
        "er"
      ],
      [
        "s",
        "w"
      ],
      [
        "re",
        "n"
      ],
      [
        "Ġma",
        "ke"
      ],
      [
        "Ġne",
        "ed"
      ],
      [
        "c",
        "ess"
      ],
      [
        "t",
        "o"
      ],
      [
        "Ġs",
        "le"
      ],
      [
        "Ġc",
        "le"
      ],
      [
        "Ġw",
        "ill"
      ],
      [
        "Ġp",
        "e"
      ],
      [
        "Ġh",
        "our"
      ],
      [
        "Ġha",
        "ir"
      ],
      [
        "wh",
        "o"
      ],
      [
        "a",
        "k"
      ],
      [
        "l",
        "ess"
      ],
      [
        "u",
        "st"
      ],
      [
        "z",
        "z"
      ],
      [
        "at",
        "ing"
      ],
      [
        "Ġp",
        "h"
      ],
      [
        "ll",
        "o"
      ],
      [
        "Ġk",
        "ey"
      ],
      [
        "a",
        "ut"
      ],
      [
        "Ġs",
        "k"
      ],
      [
        "Ġin",
        "v"
      ],
      [
        "ir",
        "t"
      ],
      [
        "Ġj",
        "o"
      ],
      [
        "Ġne",
        "w"
      ],
      [
        "Ġsc",
        "r"
      ],
      [
        "Ġjudg",
        "ment"
      ],
      [
        "l",
        "or"
      ],
      [
        "in",
        "ter"
      ],
      [
        "ly",
        "n"
      ],
      [
        "Ġun",
        "der"
      ],
      [
        "wh",
        "ich"
      ],
      [
        "Ġpat",
        "tern"
      ],
      [
        "h",
        "o"
      ],
      [
        "Ġt",
        "ra"
      ],
      [
        "st",
        "er"
      ],
      [
        "Ġg",
        "r"
      ],
      [
        "Ġon",
        "ly"
      ],
      [
        "Ġcon",
        "s"
      ],
      [
        "Ġne",
        "ver"
      ],
      [
        "Ġty",
        "pe"
      ],
      [
        "g",
        "n"
      ],
      [
        "u",
        "ll"
      ],
      [
        "Ġjud",
        "ge"
      ],
      [
        "Ġlearn",
        "ing"
      ],
      [
        "b",
        "o"
      ],
      [
        "v",
        "en"
      ],
      [
        "x",
        "es"
      ],
      [
        "at",
        "h"
      ],
      [
        "all",
        "s"
      ],
      [
        "Ġv",
        "irt"
      ],
      [
        "Ġmost",
        "ly"
      ],
      [
        "be",
        "am"
      ],
      [
        "o",
        "se"
      ],
      [
        "Ġa",
        "ct"
      ],
      [
        "ou",
        "se"
      ],
      [
        "at",
        "er"
      ],
      [
        "Ġre",
        "s"
      ],
      [
        "Ġbe",
        "aut"
      ],
      [
        "Ġma",
        "kes"
      ],
      [
        "Ġhe",
        "lp"
      ],
      [
        "Ġsun",
        "beam"
      ],
      [
        "Ġthr",
        "ough"
      ],
      [
        "m",
        "ical"
      ],
      [
        "Ġs",
        "up"
      ],
      [
        "Ġd",
        "id"
      ],
      [
        "Ġpl",
        "an"
      ],
      [
[...]
